[PAD]
[UNK]
[CLS]
[SEP]
[MASK]
!
"
#
$
%
&
'
(
)
*
+
,
-
.
/
0
1
2
3
4
5
6
7
8
9
:
;
<
=
>
?
@
[
\
]
^
_
`
a
b
c
d
e
f
g
h
i
j
k
l
m
n
o
p
q
r
s
t
u
v
w
x
y
z
{
|
}
~
¤
©
«
®
°
±
·
»
а
б
в
г
д
е
ж
з
и
к
л
м
н
о
п
р
с
т
у
ф
х
ц
ч
ш
щ
ъ
ы
ь
э
ю
я
є
і
–
—
‘
’
“
”
…
№
∙
─
│
┐
└
┤
┬
┴
║
╕
╗
╝
╣
╨
╩
▀
█
░
▒
▓
##e
##s
##o
##р
##а
##ж
##t
##r
##y
##l
##у
##б
##т
##к
##и
##о
##д
##л
##п
##с
##в
##е
##ц
##н
##ь
##f
##m
##p
##м
##4
##3
##6
##0
##ч
##ы
##i
##v
##a
##n
##d
##ш
##c
##u
##x
##ю
##г
##1
##5
##я
##w
##ф
##з
##2
##х
##b
##h
##g
##щ
##k
##q
##z
##7
##9
##э
##8
##j
##ъ
##є
##і
##ка
##ин
##ор
##ер
##ол
##ен
##ов
##ар
##ыи
##ки
##ел
##ст
##00
##ан
##ом
##он
##ая
##ет
##ал
шт
##ок
##ат
гр
##ныи
##ои
##од
##ит
##ра
##ик
##ля
##ое
на
##ес
##ла
пр
##ос
##ель
##ем
##ил
для
##ив
##ная
##оч
##ек
##ев
##ур
##от
ст
##ски
##ам
10
##ир
кг
##er
##ые
##ни
##50
##ру
##ия
мл
##ак
##ас
##им
20
##аб
##ог
##ис
12
100
##ез
##еч
##on
##ус
##ап
кр
##аз
см
##ное
##еи
##аш
##in
##ад
##ед
##иц
##кая
##аль
##уб
##орт
50
##ож
##ные
##оп
##сс
чер
кар
св
##ут
мм
##аи
пл
##об
##оз
##ид
##ич
##an
##оф
бел
##скии
##om
из
##ул
30
##en
##ar
##ук
40
##уш
25
кол
##ень
##еб
##ина
##or
ком
##иг
##овыи
11
##ист
кор
таб
##al
мг
##ав
00
##ло
##ост
кон
кур
##иль
су
200
##ск
##ии
##нои
печ
##ех
##le
асс
##еп
15
##оль
кл
##ип
##ская
##тр
сал
##te
под
##la
##ic
##аст
##ro
60
##овая
##из
18
нап
комп
кап
16
##ент
вес
мол
со
##ика
##ыр
сл
пив
об
##тер
мя
бл
ар
##re
пер
пор
уп
##ник
##аг
пол
13
кра
##am
14
500
вод
сп
черныи
от
хл
##еж
##el
##бор
##ест
мор
##лад
ассорт
21
##ум
##ou
му
пиво
печень
##еты
##кии
шок
сыр
##st
250
бр
по
жен
дом
##та
сер
##ol
##ун
##ован
##уд
##осс
45
300
150
##ня
салат
##ино
ор
##ош
24
##ские
тр
##ra
напит
##ичес
за
##il
##it
##ие
мас
пла
##кт
##уч
##ью
##ег
ин
##ны
##кои
цв
##at
печенье
400
75
90
##нии
80
##иб
напиток
хлеб
белыи
##20
##лек
карт
##ss
росс
01
##ми
крас
##ли
17
порц
##анд
тв
домаш
##очка
##во
##аф
гор
##ах
газ
##ль
мин
иг
##лен
##утб
19
##us
##ров
55
##un
чех
эк
шокол
набор
##бл
com
70
ан
##еш
дет
кру
мар
чехол
##иш
##as
##ики
##ого
дж
##ch
##ков
шоколад
##яд
##et
пир
##ri
муж
##ец
comp
##сы
##ян
россия
пласт
##ва
суп
##30
мяс
35
вы
##уз
сок
##итель
зел
##еф
##ck
##но
##око
##ьютер
компьютер
##ed
ак
сиг
##ами
мал
##ба
фру
##ух
##очныи
гов
##уп
##иф
##инка
чаи
ma
вк
тел
ябл
кла
курин
##еин
цвет
##стра
pro
##уст
##is
##уль
27
##арт
фл
син
##омат
22
слив
##ыш
st
32
cy
лим
##тор
##эт
##ины
##ца
нар
гол
сигар
##арен
крем
##you
коф
compyou
шар
57
вин
##ское
##ct
##80
##ники
##es
##ака
##ig
##ива
тру
мик
##10
ос
##ица
свин
лимон
упак
рез
дер
сигареты
##ья
твор
##ач
вкус
сух
##етка
лю
колб
##lu
##жка
##амп
мед
роз
арт
##ot
соус
33
ап
домашнии
##one
ip
ск
ал
вода
пирож
пэт
каб
##рад
##60
раз
сол
##ника
ав
бат
картоф
##im
120
##екс
сам
класс
##ока
##ome
##ке
##um
##атель
##ing
пак
##иск
180
зелен
стек
руч
без
паст
##pp
фр
ам
##очки
##ье
##стр
##ia
pc
вол
##ект
##юр
##ирован
##ят
клуб
350
ваф
говяд
конф
##ант
##атор
home
02
элек
sp
##овои
##га
гла
##mi
бар
сем
но
вн
колбас
ассортим
bla
электр
##ион
нак
##ющ
##пр
свет
ово
овощ
##ion
зол
##os
кот
руб
рус
##шк
пар
ван
##чик
##ite
##ическии
фил
##ро
##ция
жел
##олка
##ерм
black
28
##орм
табл
85
##нев
in
##идж
##иваем
бан
##ce
брю
кофе
ры
встра
##пер
встраиваем
##рав
уг
ноутб
ох
##инои
футб
##овка
дерев
##ного
##ым
##40
23
сос
бут
тем
рас
нат
03
капуст
##лаж
золот
##лив
110
рул
##ушка
##есс
оо
48
##ных
##цы
##id
инд
05
кв
глаз
##ета
##hone
ооо
футболка
фрукт
яиц
##ax
виш
зап
бал
000
##мен
95
##ыл
сах
##ода
им
##ильтр
##етч
ассортимент
sam
##ov
яблоко
##ерт
яшк
iphone
##ко
##мж
маи
пря
мон
рис
гл
колбаса
плат
стр
##ir
пан
маш
гриб
лук
ср
##ung
кабель
жев
ассорти
яшкино
ассортименте
мак
капс
##70
##ad
картофель
sams
##аж
масло
36
samsung
re
##енка
##озд
ог
ок
42
ch
пал
##юм
##обр
##ber
защ
##она
##ip
##иски
брюки
стекло
##oo
##шка
##кое
пит
##ох
##90
батон
##на
450
125
##уж
люб
мини
кок
##ущ
##ура
мат
нов
##ay
картр
##and
сил
филе
конт
картридж
31
sh
дв
прин
##iv
слад
##ent
38
ноутбук
морож
blu
сг
##то
##очная
##овые
577
##змж
торт
кан
##ания
ne
##утр
пом
зам
##ения
##ab
65
##ле
140
науш
26
сыром
##co
бум
##ным
##урт
##альная
210
##син
микс
##ма
фильтр
##юк
##бр
##оика
##ашка
наушники
томат
##ука
##ита
##еное
зеленыи
##юч
нект
черн
##ерс
##ык
557
яг
ун
##ена
600
de
##ort
##ическая
куриц
##анг
##ровои
##те
##per
апель
нектар
вид
red
стол
##ение
gb
app
06
##ув
##си
ант
##ur
##одук
внутр
синии
##ерж
##ры
пюр
##ell
##икон
04
##ша
##ера
##инг
##ана
##ора
##да
бзмж
красныи
##ut
wh
сахар
нач
##альныи
сгущ
##ри
##ul
##ik
джем
##етки
07
зуб
##ow
##еми
##тка
##ff
вино
вар
наст
##еика
водка
котл
##иж
apple
пластик
##овое
##oy
##уг
пюре
гель
##одукт
sm
51
##акт
чип
рол
кош
130
61
pl
встраиваемая
иог
зав
##яж
од
бул
молоко
огур
ту
##аин
эн
шп
##окс
##каф
gal
серыи
вафли
##евая
шамп
творож
тар
08
hp
варен
1000
круг
##ерг
смарт
ип
##уша
##sb
конфеты
##лин
##ine
бор
силикон
фар
пос
добр
as
170
mi
фас
пиц
##ne
жарен
ручка
##енныи
маг
ph
защит
клубника
кола
раст
##ран
нос
апельсин
кал
ветч
пель
##няя
орех
##орез
##сп
##нич
##омб
чипсы
комплек
виде
##мени
вит
свеж
креп
##енд
мр
##ти
##тя
al
##ea
##аика
##io
не
гост
##еев
би
лак
перс
41
ar
ов
куб
при
рулет
яицо
сосиски
52
900
##axy
##ладка
44
##акан
хол
мет
galaxy
##ств
##мер
пирожное
отв
лап
мы
пицца
ук
тет
оп
##fe
37
игровои
##ob
##ками
##шен
иогурт
##инк
унив
тон
##ers
говядина
натур
800
пельмени
бол
##вор
рем
белая
корм
##олн
проч
##еная
охл
джин
нарез
th
##ента
салф
пет
47
##ua
##ота
##art
обл
##онд
сред
кат
##ком
ут
##бит
le
##ека
стакан
маион
карам
чуд
мк
саморез
##евыи
авт
##раз
##ница
##рушка
проф
##еис
телеф
кук
творог
220
##тяжка
##са
##act
29
##кие
usb
рыб
вытяжка
##оком
09
кн
желт
сла
сереб
мороженое
##ство
240
##ечки
160
панель
pre
##их
мяг
маионез
лин
лет
сн
лос
##атив
мрц
вер
56
##ира
сад
преми
спр
эл
##арь
лимонад
курицеи
оч
уд
##фон
##ge
##omi
угол
молоч
топ
77
##скои
##елка
рож
новыи
##ово
##ып
балт
голуб
возд
##we
##евиз
премиум
светл
##ft
любим
##нов
прот
##op
59
##ированныи
##ma
##ыч
коп
34
##енная
паста
##ver
te
##ман
блок
pa
телевиз
чудо
##рач
сд
кис
сель
прок
din
пв
прип
джемпер
помид
col
##рон
мос
##асс
муль
аромат
капли
##инки
##ht
ролл
ex
201
баб
шкаф
вкусом
72
сухар
su
##дв
64
пшен
xia
54
##ta
##еля
кам
xiaomi
куп
универс
боль
93
plus
гран
##ея
мел
стар
машина
be
##ели
волос
##тра
пеп
кух
##илка
ягод
труб
капуста
##de
##еинер
xs
морков
##ард
##яч
больш
ru
платье
xl
помидор
co
смес
продукт
53
##рус
кост
аль
##нит
##еик
##ase
58
sil
крыш
##ie
смартфон
##роп
##апка
##иска
проз
чист
gl
сист
##есн
носки
##ород
соб
орбит
99
пров
##og
лапша
вал
зв
персик
max
дес
сельд
ла
сливоч
коль
аз
##не
46
диск
##ых
систем
бер
во
контеинер
прочи
бес
сет
##эн
куртка
кист
дек
##бин
вишня
##old
черная
ска
молочныи
43
зер
принтер
груд
##ата
##унь
запеч
пыл
##ург
кни
blue
##ио
##лер
конс
ваниль
фот
##ся
##21
en
se
туш
un
нб
лед
##сл
##уля
мах
an
кож
ом
каль
др
та
юб
##андарт
##ищ
##ага
резинка
карамель
добрыи
кошек
##25
дев
пылес
gre
39
##авка
##ox
спреи
##стан
рад
цып
комплект
sl
##икс
изд
he
##евои
трусы
мир
кока
лист
bl
##амин
##ight
светлое
чесн
те
white
дра
##мар
##оя
лаз
свинина
##инскии
##икан
гар
банан
экстра
вен
тм
балтика
мест
##11
холод
##ури
el
##se
##sh
греч
прим
##опр
ма
форм
плен
булочка
оц
трад
каш
ром
ac
##лом
##ant
##обиль
батончик
сдоб
##елем
##вед
##ru
короб
пломб
грибами
тов
sc
##ерв
фит
##жан
no
лосос
мульт
кус
##ева
##чат
##еныи
курица
##инкои
игрушка
круп
имп
лента
принтера
pla
пт
газовая
##алка
акт
230
вт
пов
gold
устр
пирожок
пвх
русскии
смет
##ольная
##еики
пирог
лес
ди
##od
##яня
изюм
##me
##кс
##олет
нез
##це
67
тест
##алл
##ond
кокте
001
##инт
соусе
защитное
ламп
кубан
##одные
силиконовыи
##онт
неж
олив
led
##мо
овощами
##лян
дю
мясом
хр
##man
##lass
##ние
##av
рубашка
плос
##овки
##ном
##ющии
##анч
##имая
ев
700
наз
330
нерж
##шт
плю
so
сиб
##end
любимыи
стир
коктеиль
##ость
подв
зак
уз
конья
терм
манг
##авис
##иловая
##lt
кисть
фи
##ги
##int
mic
независ
копч
пшенич
подс
наруж
##ящ
джинсы
##ry
##iz
независимая
ea
губ
компакт
es
женские
##андаш
стандарт
плав
хру
82
ад
фиг
##ольныи
начинкои
##яз
premi
gam
##wei
##ющая
па
##ска
кольц
бумага
##астер
кос
##ak
розовыи
ключ
обув
устрои
сан
тол
##чики
блуз
hd
##гот
сельдь
игра
код
размер
##дин
салфетки
традиц
bra
док
яб
нож
##нем
серебр
ара
смесь
##ap
##ice
суш
мыло
lu
##yp
мята
тор
##же
квас
##вет
##ланд
одн
phil
тетрад
серв
пот
##ова
##рукт
##ston
жив
прозрач
##ефир
63
декор
мясо
уль
жид
##неи
блю
слоика
ат
##12
план
##ard
лат
баль
сы
ув
труба
##цион
96
кругл
посуд
свеч
750
hua
вел
105
##ола
гал
спорт
пылесос
roy
##зам
huawei
##отинки
куриные
конд
##истыи
дуб
хруст
lm
карандаш
болт
пен
дух
сое
клеи
бесп
краб
asus
philip
190
##оном
марин
##тет
##ери
##ицы
накладка
##ster
шаш
ас
амп
##анас
xx
рот
##невыи
огурцы
телефона
туал
##оград
желтыи
куриное
##ленка
##ini
ябло
шампунь
встраиваемыи
лазер
mar
нас
du
##рев
энерг
груша
premium
маз
сир
ваз
палочки
пепси
блин
115
ланч
##ости
марм
дел
лав
##оны
777
тетрадь
ред
аг
##li
шашл
ad
кит
пломбир
десерт
am
or
фрут
заж
##пус
gr
беспров
ge
гв
555
mm
пок
сло
##уга
сталь
маска
280
вс
подар
##анж
детскии
стру
алк
свер
##има
мака
##кра
##янка
##lect
##15
мобиль
электрическии
зал
говяж
##орон
270
бальзам
лица
62
котлета
си
micro
аэ
шв
соч
##ga
час
кружка
бонд
##ix
манго
sk
крев
остр
##ib
пп
##ласт
детские
##ожка
##ca
ел
паш
бак
акция
хал
тер
пряники
##berg
фарш
##одная
овся
слав
экс
клюк
электрическая
беж
тарелка
##рава
##нес
доктор
##ованное
муф
яр
лампа
биск
##ps
##кал
виноград
ананас
##оза
##qu
горяч
супер
дан
ра
шапка
щетка
полот
сметана
прован
куриныи
royal
##ink
for
до
заг
хлоп
против
спир
##иров
кукур
ориг
smart
##ошка
духовои
куриная
луком
##до
66
88
##ку
корич
белое
##17
нарезка
car
##иискии
ult
арах
сгущен
##илин
##вит
особ
мужские
лег
шорт
фран
сорт
выс
обувь
ряд
##ac
эм
##за
ss
ит
##ero
фруктовыи
ed
туб
##ции
соусом
ист
махеев
ков
one
##bl
##очек
сэн
##анс
актив
##кид
дар
голубои
мил
len
фигур
чаин
жар
ha
муфта
super
красн
деревен
котлеты
сум
малина
колгот
нег
пастер
##ативная
крым
шорты
##инская
мес
##уф
##ron
блузка
мармел
##оди
нес
ур
ur
крон
##нот
##альные
бель
##епл
расс
жеватель
##истер
##ies
68
##oth
кухон
##сил
серд
##оц
бек
can
##роф
##ъем
##амб
сухарики
стер
##ораз
##ovo
пап
##ниц
##пар
360
циф
light
абр
кросс
арахис
##еные
хом
cs
пить
кольцо
прованс
ветчина
шл
зар
##едро
##ельныи
##ями
##огод
толст
##овскии
влаж
зад
пластинка
compact
пат
виниловая
творогом
прост
рук
##агет
подст
me
маль
кокос
магнит
at
redmi
ржан
class
семечки
порт
колба
кисл
сэндв
##рам
кукуруз
морс
##екер
##tel
##аны
картофелем
##18
золотои
коньяк
игр
сэндвич
##аиба
##ени
мармелад
рам
son
##ыв
мазь
##овская
рыба
бутыл
бра
форт
kit
bos
##ьи
##ание
соль
бур
уш
##кл
##еска
##ure
##ag
внутрен
##all
паштет
260
пред
морковь
три
##ерам
колготки
акк
голд
con
сов
кун
мод
green
lenovo
92
минер
ветчинои
колбаски
ум
телевизор
##иля
49
##очнои
зд
##ерб
##изатор
##рыт
звез
##ens
##ook
шк
грин
##let
накоп
silver
##ter
fa
97
де
батар
помидоры
фото
абрик
корпус
накопитель
гаика
##орож
прием
cl
витамин
290
цинк
оригин
вос
pr
краска
москов
##итер
##руб
еж
##оин
воздух
##ower
175
off
чеш
зелень
плюс
провансаль
76
арм
##евскии
люкс
темное
изюмом
320
ош
лот
##ve
##ичныи
комбин
ват
case
er
хомут
##рат
##юг
пог
sd
##ood
##лит
ультра
##онг
вз
классик
##ica
оф
уголок
##ифон
цб
soft
##ull
свек
##ление
гриль
128
81
драже
золотая
##ельки
ка
эф
##ka
002
паль
the
##ини
классическии
ku
tr
шарик
банка
порош
детская
перец
win
ms
380
бук
cle
##енок
корз
##ive
##ургер
ботинки
##др
металл
##ans
яицом
art
шпр
##екст
бисквит
##енные
##бер
яблоки
ber
bosch
ultra
xxl
ир
цез
##oss
настоика
лит
кроссовки
тип
##яя
говядинои
hon
##бир
плоская
каша
лаком
коробка
кроншт
плита
медвед
##лаг
лоп
книжка
издел
##кер
мус
##олог
отвар
##вал
##обода
ab
цар
##ph
##елат
##ила
##ега
273
твое
окор
тур
осв
spa
сев
##енное
творожныи
пес
##улятор
philips
абрикос
укра
##огор
отк
негаз
ser
##мет
li
##онка
##ированная
сырок
перех
цезарь
леп
капусты
золото
##ick
тка
лип
вост
место
гвозд
красная
яз
##езон
говядины
рост
##лы
##эш
##99
honor
##35
575
основ
заряд
##ешок
макс
завар
средство
синяя
##16
апп
##ладки
зубная
форте
сор
##ее
##ления
шаиба
color
туалет
маика
##ich
кул
##лекс
сус
кронштеин
au
##акс
фасоль
sch
снеж
##pl
доз
няня
сервелат
ног
##oc
оз
оцинк
##ti
свинины
арб
##ok
сверло
пивнои
br
мыш
##епт
##арныи
картон
темно
макарон
##ган
mat
##ub
##oh
##14
дюб
бю
полотен
##эк
##реватель
office
круасс
98
водон
цит
кры
крекер
fre
толстовка
том
аск
брус
фун
приг
шоколадныи
420
перед
##атин
ду
##учино
74
##ерная
##ang
##арка
classic
##его
кров
del
##руж
##окар
неф
желе
##гин
юбка
пят
ух
кед
ii
фруто
##рил
мяснои
##ния
горош
франц
##ina
серебристыи
сбор
сард
полус
порошок
##есть
##итор
##еиз
горб
86
дош
женская
слобода
##лет
мастер
сибир
ca
##ишка
##анка
game
##22
полос
lp
кекс
новогод
плит
пастериз
капустои
кремом
са
##или
смород
cor
винт
##етчуп
##ама
av
##коп
##раф
per
73
аб
310
принц
##евое
пач
вареная
овощи
note
водонаг
87
накл
ml
герм
дол
325
приправа
соедин
##рут
тбл
##ольник
струин
sw
##невая
шашлык
свеча
пам
печь
##оли
##алк
водонагреватель
##таж
##th
подсолн
fl
сказ
##ation
дл
телефон
имбир
ноутбука
сироп
мобильных
wom
загл
ферм
прокладка
устроиств
pe
##ара
подл
mini
солн
##23
индеики
фор
##ителя
##ао
перчат
bro
bb
спец
sport
бон
par
##ima
акв
воздуш
ник
трав
##имир
##ула
прозрачныи
##aby
кура
кальмар
##арм
троин
##ковыи
памят
лазерного
кетчуп
##исс
##19
##ют
раб
система
69
ва
2000
сливочныи
приправ
##kа
молочная
##енс
##лов
2108
флэш
da
##рик
системныи
медведь
##альное
сумка
##рия
дво
зем
влад
106
мяса
##оты
ap
##13
пленка
ray
чуп
ол
рос
анг
сусп
650
моск
внутреннии
##ack
домашняя
бы
elect
tou
##авар
mil
стеик
sony
минд
прод
##рос
большая
зла
##ечка
power
бленд
сладкая
дюбель
аскор
буль
##ада
двух
##45
жевательная
отб
микроф
клубнич
010
##ove
##искас
ге
space
канал
подставка
домашние
традицион
фан
##ические
линия
вискас
new
барх
карта
перчатки
кунж
беспроводные
ho
домашнем
прав
перв
посуды
cact
рожок
вя
##овы
борщ
бавар
canon
русская
шур
cactus
nat
перц
юбил
##кин
арбуз
силь
ev
##ris
вр
##onic
fi
бад
ми
##ованныи
##икат
рожд
кака
##юз
##атка
dv
стиральная
зажиг
аэр
pol
##und
домашнему
фотоап
ко
отбор
телевизора
##лс
тушеная
коричневыи
фотоаппар
ян
##ещ
лен
gra
оранж
сливки
##еки
дошира
провод
play
##je
нит
sf
капучино
охлаж
шип
здор
##eld
маком
sa
тб
тех
француз
доширак
112
аккум
мультиф
туба
ласт
бюст
340
коз
рег
какао
скид
##очник
город
mon
lux
##ань
оао
резь
##яр
троиник
##илон
ремень
la
леис
лев
##лот
сгущенкои
пил
##ile
амер
насад
вет
консерв
раф
баклаж
весы
ац
приправыч
##our
##манс
чеб
##нее
мер
бежевыи
ль
вареники
бархат
##ko
яблочныи
##ypo
бутылка
прокладки
##дел
cr
баз
кран
трех
греи
груз
men
резин
фоль
##ity
блендер
##ре
барб
монитор
кунжут
##hi
neypo
ротманс
##иком
##янскии
пряник
slim
mag
грибы
переход
заглушка
##инь
##32
лаим
масс
дон
mob
торм
пленочнои
керам
маслом
bk
##нат
##есло
##lex
##аку
трик
видеод
##таи
нав
красное
##ито
bt
наг
##овер
автор
дез
##pt
курицы
кард
часы
102
кабач
пост
серия
держ
зат
аккумулятор
питания
горч
собак
550
520
ce
поли
135
acer
ps
##кат
бекон
тепл
##орода
планш
женскии
чесноком
##85
##пан
##они
is
wat
##еза
винныи
видеодиск
год
кожи
##ling
фиолет
bo
импорт
брои
реб
##унт
кнр
костюм
аифон
конв
горох
di
ромашка
pan
##ром
багет
крупа
ниж
сап
mix
ман
##ическое
qu
пул
##33
##lux
сахаром
фреш
ккал
##rig
cre
##мк
winston
тык
кресло
алюм
тост
пара
480
цена
##ограф
79
pp
pri
lg
блинчики
430
##цев
84
##ning
мои
микров
весна
##очное
ради
поп
##фа
раствор
sn
струиного
крышкои
гранат
мот
##усь
гот
##erg
усил
##елла
##офен
##ton
116
##иза
##екар
бит
005
lite
хох
нр
##лав
дерево
удлин
горошек
##ill
кин
рес
лето
##ушки
большои
крышка
эски
шприц
ld
хром
мп
##одерж
##ибк
vt
глазури
звезд
иск
bq
мех
##енки
комб
##де
универсальныи
сел
леиз
dell
##оуд
val
##ецкии
хоз
вент
##ипс
##ными
touch
мят
микроволн
горь
шуруп
фри
малыш
kid
##галь
##дж
aq
кефир
##очные
##oren
квад
##mp
усл
##ays
101
чернос
зефир
прям
##кино
##мент
профиль
bar
##нал
##абота
##емент
безалк
морскои
хлор
завтра
##ентр
томаты
планшет
##лок
3000
охлажд
##одка
##пи
икра
карб
##пресс
фла
фитнес
цел
расп
фир
крепкое
блистер
##есса
молот
wi
дис
папка
##ожж
пауч
кноп
##ари
##иру
телят
##iss
рисом
шест
##ыня
##34
плинт
##ено
бумаж
противоуд
жареныи
##инские
104
##oun
скум
рюк
эскимо
2101
нев
эр
освеж
текст
##лев
##fi
леден
ошибк
fit
кп
##арин
увлаж
370
эт
##игр
hy
кт
##ke
##леныи
цветов
молод
верт
эль
однораз
кореи
mor
##али
рюкз
950
соединитель
##ырь
фрутон
cc
про
##кафе
cas
md
ао
масл
манд
товар
##64
боч
##ивная
купольная
обед
фрутоняня
обол
пищ
мороз
автомат
шланг
нескафе
эмаль
выкл
ост
on
##одар
лососем
микроволновая
##der
зим
раг
скумбр
гиг
проп
лаваш
дым
##дер
плинтус
ess
tw
##fort
air
бокс
накопительныи
##нитель
сердце
##bo
##24
##оне
##па
источник
##анов
подсолнеч
авторабота
грунт
##би
fr
киш
top
род
##65
шн
##for
верх
##илд
круассан
78
##yl
##31
овощнои
##ольные
kr
свит
рюкзак
##ci
bu
грудка
рагу
яс
мужская
nik
gu
горбуша
##ильник
кислота
##вен
пра
сардельки
сладкии
пуд
ив
lr
gt
фарм
птицы
плата
##авр
хохланд
##di
детеи
упаков
земля
##пф
серебро
##еиныи
esp
##никои
пирожки
баран
жареная
март
видеокар
конст
фильтром
корол
троп
принцесса
свиные
##hd
##asonic
чел
##берг
sim
видеокарта
##ковая
##иская
цыпленка
бир
brau
##вер
##абр
день
##ba
длин
##алия
фигурка
we
малин
аппет
нг
жем
розетка
aut
милка
line
московская
биг
пн
утюг
уч
##max
отруб
71
berling
ba
мясная
94
##ama
миратор
цыплен
brauberg
ведро
##ног
сид
##цвет
москва
полотенце
##ционная
ча
цветная
##go
##лас
##yle
инт
lightning
машинка
биф
крол
berlingo
##ze
##очке
##ичка
##еиная
##ize
##изин
series
гел
классика
##ава
пресс
panasonic
ягоды
орган
##ita
##eg
жидк
овсяное
##ием
хлопья
003
язык
през
картошка
жареные
лосось
##унг
бет
сек
осень
ts
бюстгаль
виски
столовое
хар
##кон
жемч
гиб
##шки
##75
сгущенка
kra
подушка
лаит
##отр
скумбрия
мираторг
вып
full
##ешка
мультифрукт
мяк
натуральныи
семена
ol
крюч
##иная
##ark
молоком
##of
89
women
зао
сорочка
##икл
##лиф
сим
клин
деликат
душа
тела
роза
вишнеи
кореиски
пуловер
id
монтаж
щет
##инат
аква
ga
сков
155
##иа
##дель
##огр
проб
крист
##ish
##епр
пастеризованное
##ежныи
коврик
комплекс
сдобное
##pe
фин
##альник
пакет
##еон
лоток
рождения
био
клюкв
ты
##ышки
##28
мент
bor
массаж
##овик
волш
каз
td
днем
тра
##фт
##77
клетка
евро
аленка
дереву
цветнои
туф
ag
питьевая
##ys
##tex
нест
##ства
кукла
ec
аппетит
##яс
мкм
жир
автом
супп
hb
##еево
аскорбин
компот
пальто
##are
##to
##кор
##оми
экран
исп
книга
конверт
чешское
сухари
##илен
полн
спирт
##zz
светоди
миш
свят
зеленая
свиная
##омка
масле
##ешки
туалетная
внеш
малень
ver
аром
##ирам
##илятор
фанта
##ock
122
004
клюква
##еры
дои
сар
чернослив
##36
деревян
##рет
##ории
##ано
влажные
гн
mobile
туфли
подвес
докторская
вкуснот
##pson
упаковка
креветка
бургер
кеис
##фект
изол
##ino
117
чиз
##mans
##оит
jbl
уц
##жа
инф
185
пы
##нь
черника
##be
electro
сливочное
##уки
ari
над
ext
ak
mr
##идин
cf
##оект
1200
##азка
##нитура
устроиство
##тон
##истр
сады
нержав
покрыт
дир
пэ
cm
##do
скоб
ворон
##щии
##ano
груш
##ескии
##feld
##ала
vite
##rix
заморож
молочные
тат
425
черри
вкуснотеево
gs
##оги
плитка
720
грил
сухои
viv
##чо
аскорбиновая
##овых
очист
трикот
##ype
интер
аис
нем
##ефт
пикан
##гои
меб
##чная
tom
жил
145
угл
конструкт
бюстгальтер
свекла
хрустящ
биз
##ицеи
ben
mid
##етр
печен
шлиф
##отка
вяз
to
##ong
бород
##26
очищ
##енз
фью
шир
компл
тун
европ
electrolux
##пон
пром
##ечныи
перцем
ароматом
##филд
огурец
прид
aqua
108
баба
ssd
cam
гир
##оска
святои
эклер
aa
##era
греипф
бог
fresh
##ео
календ
ручкои
##po
весел
##ование
фольга
##land
225
чистая
baby
size
рука
част
##ди
спортив
##aris
раскра
ste
пиж
##ara
черные
настольная
дог
белые
##ux
сетка
космет
зерн
vc
сетевои
mo
ванн
##ория
goren
хлебцы
##еиное
med
grey
тю
особая
gorenje
bel
182
ре
транс
свинои
тормоз
##ким
удлинитель
трикотаж
обои
самс
rep
нефильтр
cal
пик
##ena
##he
nor
##ble
индеика
ягодныи
##онок
type
##иватель
roth
мох
eco
##27
рат
пф
реп
голень
energ
##нос
грудинка
91
lum
##реп
валик
##рем
экстракт
##берри
фермер
2019
закус
краснодар
##кет
кдв
##66
вафель
мягкая
dr
##амм
##ets
850
##oul
##уар
корочки
охот
bond
pal
##38
rothmans
сливками
##ево
ягн
##урма
гринфилд
диз
##em
коровка
##ленныи
##лед
##ssion
вв
##39
кент
салями
доп
эконом
основе
##sa
тесте
watch
яч
конструктор
сывор
хв
ало
кондиц
голов
губка
uni
##ana
темныи
сплит
act
##отч
букет
sb
##eto
##ицин
##леи
##wn
пластм
##эль
огурц
венг
соф
##ированные
ден
star
stre
##имо
##ули
жиг
колес
масля
маркер
старыи
cro
бедро
зеленью
деми
самсунг
mp
mb
man
ря
ra
##37
##очист
##ечник
украш
фунд
my
##ульс
исс
##ier
волшеб
насадка
##95
матер
солью
алоэ
фон
##гар
аэроз
sen
фен
сосиска
ки
137
master
данон
матовыи
глюк
фист
минеральная
ros
##oll
мо
maun
ви
##лои
##les
mac
maunfeld
##иви
янт
460
игру
острыи
череш
ремешок
##67
зарядное
ju
леч
470
эко
элит
##улы
коллек
энергет
ауд
##пред
здоров
hot
мужскои
акуст
##обс
##41
##оген
маки
гер
санд
яблоком
шариковая
шарф
поло
облеп
саморезы
mg
bas
jack
##68
внутрь
рукав
##ance
зажигалка
полип
##ть
##форт
безалког
лид
приема
портативная
hat
perfe
фирмен
ха
сен
eu
макароны
круглая
горячии
як
mc
ти
##box
жест
ба
вилка
##ha
мягкии
брасл
мель
##окк
колонка
2110
##ико
доб
пуст
нал
запека
живот
сырныи
##pad
ед
##шко
внутрикан
брон
откры
хот
##лю
##plus
скотч
салатник
мальчик
cat
##ore
sal
пу
##еда
опер
нержаве
##юля
граф
##ельф
205
шампинь
пижама
облепих
бизнес
паз
##ist
каст
италия
har
##стер
ds
tri
##спорт
##29
##ичная
338
классическая
гарнитура
тесто
полуслад
шнур
мякот
##жим
воды
##раб
тим
##da
##ких
рак
смородина
##форм
внутриканальные
орехом
посудом
мом
1500
hs
jum
##ew
противоударныи
сковорода
бочка
проводные
девочек
##уц
цитрус
шоколадное
сч
хозя
рж
dis
sup
иде
германия
раств
##mer
посудомое
комбинезон
дирол
наб
маринован
италь
##хл
лор
##итан
анал
msi
воздушныи
саи
530
синт
восстан
##ности
лом
##опроект
нер
держатель
##ход
видеопроект
фрукты
эв
##na
580
бис
##ition
ep
кубань
мю
рин
##ерн
полуб
orig
пист
##опласт
глян
томатныи
пшеничныи
цифровои
бамб
##book
зима
горш
оливье
##lub
гоф
sv
моч
фут
проц
sol
##ектор
##теи
лис
##ppers
круглыи
##фор
152
авто
##атора
mf
##etooth
сант
##овым
##ионер
форма
##ric
опт
узб
латте
чаиник
фиолетовыи
отвод
мрам
цвета
##ючатель
king
lc
киви
роя
жеват
изделия
bluetooth
домик
деликатес
самок
##ыз
днев
воздуха
сказка
года
внешнии
блины
потол
резьба
фьюз
переходник
ручнои
##que
материнская
морская
##убл
подарок
epson
наружн
штуч
gm
соломка
##ояр
праз
фикс
##рау
des
love
006
##che
сухое
pink
натрия
кф
строит
##инград
бульон
юбилеиное
аудио
bon
of
##руг
##station
зажим
быстр
##лянда
int
##xy
##нка
сдоба
##шн
зерка
радуга
адж
отр
исслед
солянка
##онья
165
mt
заб
прямо
164
китаи
благ
##акси
пуль
ежед
510
##ki
##98
##inal
шоколадные
окс
живое
playstation
##sp
краи
творожная
кондитер
кет
##оиз
##мос
плет
пенал
лопатка
fla
дыня
clear
##рас
наполн
##урныи
##иан
наклад
##илька
gi
фрика
полипроп
dc
##ность
кир
окр
изделие
крыл
##bu
##огорье
##ai
мкг
куз
блест
цветы
rc
##икано
хрен
зн
моз
калин
леденцы
пк
батареика
club
bi
pat
шарики
утеп
посудомоечная
##use
завод
вишневыи
кукуруза
nb
бамп
карбон
белья
мохито
ег
##орус
##очкои
акс
ватрушка
погруж
morris
комфорт
dvd
107
go
##илия
profe
011
аф
фотоаппарата
каф
and
##иал
чеснок
гвозди
папа
петля
mobileplus
тефт
##аил
##леная
##итр
глав
да
подуш
клапан
025
sho
хаин
мыт
дп
##нер
##икет
остров
прямоуг
вкуса
lab
гид
##96
##кан
cd
dig
##44
##81
дм
profession
##ошкои
##ator
ipad
натуральная
экспресс
након
кожа
черешня
мид
маляр
##ex
##dio
##tain
оранжевыи
пена
##va
блес
погружнои
##ать
взрос
шпатель
##юф
##нышко
idea
глад
##ерст
gc
it
ral
хач
##яна
hdmi
лепешка
подарочныи
фундук
111
овощеи
дат
салфетка
мен
##продукт
##kи
##офф
память
идеал
jet
суд
завтрак
гирлянда
mas
##цевая
штука
инг
мясные
празд
sens
квадрат
kол
подш
сахарное
круж
точ
2018
маринад
кондиционер
гур
гренки
espri
##зы
up
норм
kuppers
kuppersberg
tp
вор
##город
##ire
ek
жур
##вы
плов
##ffe
polaris
##fa
##икер
540
tech
степ
##88
##емат
сахара
бабуш
bal
греипфрут
##ност
копчен
твер
##рис
757
хрустим
воздухо
рог
##ерин
корзина
##ign
кофем
стоп
fu
брит
пон
##иссимо
##94
##елин
##осн
2020
юж
##риз
россиискии
компьютерныи
долина
gp
рец
хачап
ро
fc
tra
сюр
контеинером
бок
##87
блан
4000
##ашки
трюф
##миш
nov
ся
134
гарн
сушка
professional
##ерныи
##rol
марс
снег
##игран
##чатыи
cb
луч
разв
якобс
##ато
##лон
росси
замена
mod
##мин
скатер
элемент
чув
греб
012
кваш
свежесть
хачапури
крест
филип
bg
мая
барбек
tdm
оперативная
жак
сит
375
bs
po
паи
##ты
##облок
sy
пур
разъем
мотор
рет
чупс
##ничныи
га
рассас
vitek
##ssi
придонья
эп
xr
консервы
jumper
##него
дор
remax
чупа
эсс
##ницы
овс
обложка
hoco
устан
##эл
##61
брокк
укроп
адап
стерил
rit
цеп
мобильныи
##азол
холодец
вентилятор
мрамор
min
врач
альб
##овод
раскраска
полук
солнышко
фуф
##яная
замок
##isk
пшеничное
взросл
трубочка
повид
гам
ee
pu
стекл
215
ме
##овиц
##амид
kort
##имыи
933
владимир
скатерть
bio
##hc
##аиз
тефтели
wd
ноч
роб
##цет
##mond
##42
универсал
нежная
##имп
##91
##екат
gaming
рамка
ластик
уплот
##ouse
245
масса
korting
uhd
тетр
полуботинки
nx
ли
старод
rt
змж
ер
украшение
моноблок
кунжутом
гранд
зубр
##ви
петр
эффект
##tec
##ata
памяти
шестигран
ратимир
kitfort
fun
ve
##ипр
нежныи
брокколи
кусочки
680
##оск
##улка
козел
silic
цыпленок
mw
##афф
филад
окт
##47
плавленыи
конц
газированныи
щи
410
925
календарь
гуля
620
##97
vs
##ником
erich
сюрпр
##арх
подг
альп
shoes
матери
блюдо
неилон
минтаи
катег
cool
##овск
ванильныи
махеевъ
bw
дрожж
чили
##аза
выключатель
серь
##етсы
176
hatber
картофельное
кухонная
филадельф
##ипт
##евская
хран
##иган
серая
бампер
лаг
трим
прол
детское
ele
sun
##ide
прир
тушка
##82
##иса
скидка
лакомка
stra
##ange
##irl
увелка
tim
стан
моя
шниц
##евые
американо
street
подшип
свининои
##ther
ice
соев
чебур
очки
supra
##офарм
##ци
##адо
атлас
барбекю
##ura
##ча
ржанои
##ari
спагет
механ
##ески
020
##оша
##62
##ream
ногтеи
галакси
филадельфия
же
цель
земляника
нури
подводка
si
шуб
кеисберри
дост
ролик
kent
осм
вермиш
kids
век
цилин
##uma
говяжии
рецепт
фуфаика
##по
##ue
##ori
##ышка
глазур
сетевое
пс
##gg
013
браслет
сюрприз
##xt
##andy
##urp
момент
кулер
остан
рич
##енское
пруж
настольныи
##63
##71
тен
##иси
stay
##ly
##арная
rex
защитныи
##ler
дин
##ител
традиции
пекар
отварнои
бархатное
кухонные
##предел
напольные
алм
светло
серьги
стиль
двер
монарх
sr
чет
полим
даниссимо
83
потаи
bbk
##льныи
классические
##ине
любитель
красные
##ющие
ct
tf
гипс
braun
славян
##vil
matrix
link
вст
сот
джемом
autog
tor
адаптер
шницель
##бо
соленые
##иское
халва
жидкость
ks
008
барное
##ny
гороховыи
дизаин
трансформ
гусь
##51
##ского
таи
##ыми
полов
пикант
мекс
edition
glass
бутер
пластиковая
шпат
кролик
бант
пел
##руз
обж
питьевои
##72
картофельныи
ароматизатор
увлажня
един
##еств
экз
гиги
це
утеплен
дач
броилер
##олол
люля
иб
##ерон
original
сня
филь
рисун
##gate
нержавеющая
сав
##osso
полипропилен
tb
##pa
##аты
белар
spe
столичныи
запеченная
мальчиков
кастр
##amb
##янь
##78
фронт
##ellow
пластиковыи
светодиодная
ном
##43
глазир
нарезнои
ватные
миндаль
gig
нд
##if
мараку
подложка
пистолет
nav
акрил
##сен
##46
прест
креветки
форель
хаинц
##bit
##ори
бус
##кв
gz
агр
див
журнал
ран
вд
opt
чашка
введ
##ty
##ожд
крыло
610
##vel
урож
015
сливочные
мыль
ther
крови
силиконовая
##fest
##ябр
##ках
ls
лез
##ree
процесс
пант
##ковое
объ
кд
комм
напол
mer
##каз
озер
гб
фруктов
che
трубочки
алекс
инж
hans
ka
##анскии
гуляш
камера
ric
##оды
##ppy
магги
wr
мф
##igm
двоинои
##одныи
##ницкии
молотыи
##ошко
боди
новая
поль
ariston
хам
##omb
порция
рыч
типа
ic
##ky
услуг
буд
foo
kot
глуб
imp
##уна
свечи
om
##line
##раит
семга
888
box
##огол
##анныи
открытка
гигиен
мука
пыли
жб
компьютера
##48
##арное
##осодерж
снежок
крючок
прох
славянка
спагетти
##73
наклеика
искус
##енб
моррис
запеченныи
лукошко
gen
апельс
длина
классическое
унит
отверт
ven
горькая
##олье
объем
исследование
##ебаб
132
krause
ig
арх
упаковке
930
met
ro
переп
разлив
hama
##анская
борд
ленинград
315
даль
##ker
жигули
наконечник
стародвор
dn
##ократ
##ora
кедр
союз
твист
san
вас
реш
игруш
##ыж
бег
миксер
ваг
##so
пригот
прив
апельсиновыи
пылесбор
##егрет
расч
трап
мт
мд
фотоаппарат
кеды
вера
rs
##анда
nu
лесные
##атов
звезда
бутербр
пут
пурп
улит
шоколада
карандаши
броил
центр
560
##актер
душ
##чи
сыра
автомобиль
хлебныи
лонг
heets
##ателя
355
cho
узкая
tab
энергия
fooxy
мам
##mal
стеклян
вафельныи
желтая
сапоги
ppr
tu
вп
варенои
ваку
redmond
sds
турция
винегрет
меся
##mo
морепр
intel
кебаб
zigm
##рол
ступ
zigmund
toy
конфета
shtain
тарх
стриж
баклажан
щетина
миска
##езка
прозр
электрон
линеика
бабочка
свитл
врача
вакуум
##ении
##ись
##ско
швеиная
##оразмер
спортивные
ява
##пир
свежии
омлет
##штекс
аэрозоль
na
##86
ломт
##ep
##бои
кусок
gla
##оk
def
осмотр
ns
рк
импер
кольца
запеканка
кс
эс
##ям
##ани
кубани
hel
##ичи
мульти
extra
ta
vol
вак
свитер
##ипп
шоколадом
джинс
дюш
ул
##ноцвет
полноразмер
ша
корр
##кеик
stayer
защита
отбел
##93
розлив
дезод
cap
##фарм
тарт
классич
кокт
фел
##ks
ацет
декоратив
##lection
energy
007
##92
жат
бабаевскии
пролонг
kар
беспроводная
блокнот
##vs
##оев
корот
5000
хлорид
##левка
нестле
mu
##ium
pn
петерб
##сь
пластилин
гречневая
шпинат
колп
термо
house
##met
печенью
##itt
##mix
говяжья
французскии
##оприл
конфет
мяч
##reen
леик
скор
lip
ежеднев
##елок
вик
##pert
##55
тре
алтаи
тан
кисель
оке
презерв
##кадо
##еток
булка
##хлеб
тархун
дюшес
##ования
рулетики
care
бока
##юшка
##енье
цифра
gd
суф
спраит
иван
аи
худ
##ress
любят
gefest
band
вм
##че
ламин
##sta
итальян
вермишель
трансформер
самса
принт
свитлогорье
аво
##ment
вил
##ash
##83
##орг
##оруб
сливочным
бетон
390
##равля
grand
rg
втор
##ika
повидлом
af
мешок
грибнои
наполеон
##lue
лоб
ложка
midea
соло
биои
127
шел
опора
тоник
гнез
кк
профи
снят
сб
морковью
шампиньоны
##лита
марка
сборе
##rac
гречка
пылесоса
клубничныи
тева
##ином
##ness
rb
##ult
brother
hansa
тостер
oc
клем
оригинал
креветками
доска
тап
aw
##аваи
pant
прозрачная
##абан
кле
##over
trans
кардиган
мафф
малиновыи
fe
##illa
уголь
свежеи
мартина
воронеж
lb
##гетсы
prime
##ous
черногол
наш
сильног
кас
олад
##одок
zm
ушаст
гарнир
fs
##hl
новос
санта
##ds
лив
##ender
авокадо
биоиог
kон
макси
coca
подвеска
235
коллекция
tv
##49
примен
##ковые
азб
##una
имбирь
##еид
##raph
бп
эра
латекс
закуска
##za
cp
софт
##иныи
ростов
цилиндр
##gan
##ляр
vis
##air
##алин
208
гвоздь
сильногаз
##екен
##идол
nike
##иками
cos
##иста
mak
all
изолента
kр
япон
##ner
сыт
ir
неп
##алон
очиститель
dt
##age
##кар
smeg
жилет
восстанов
fort
##ьон
лезв
vio
ликер
англ
050
ky
##очно
мышь
ax
lin
чистящ
охотнич
аксесс
мытья
candy
natur
там
##iser
азерб
бамбук
гус
##раст
мякотью
подшипник
любятово
нур
##ощ
##гекс
клубн
075
север
мандар
##ички
контр
бифштекс
отвертка
лиз
##сли
style
585
бру
топлен
soul
happy
440
103
print
жакет
bea
##69
колос
баклажаны
наполнитель
стрижки
rich
шеф
##bs
белосн
##ерне
##ush
окорочка
дяд
##алгин
прик
домашнее
велкоп
лд
##отик
цыпля
помада
видео
пидж
##альнои
xbox
тт
услуги
##еварка
трос
орео
195
планка
dual
##ография
беларусь
назал
кристалл
валери
##74
##мак
сидр
акустика
ани
саш
##еек
новогоднии
мож
рект
##илл
альбом
пиджак
предмет
общ
трус
презерватив
темп
swe
армянскии
тверд
##ога
118
лимоном
активиа
окорок
биточки
нянь
##них
ряб
гу
heima
каберне
вишнев
озон
подд
##аид
деревенски
дезодор
##ics
молок
rh
клип
котят
говяжьи
высок
рассольник
беконом
некст
##сk
разм
халя
niv
корни
##ися
мясн
030
кавка
кресть
gram
мега
атл
шампан
освежитель
##аизер
##als
##епка
мандарин
жатецкии
kор
главпродукт
##разы
трубка
ваня
тетра
петербург
##оры
##увлаж
lex
сильвер
тыкв
электром
sand
бисквитныи
ушастыи
dream
пч
##oma
pavil
pavilion
nero
пуг
demi
mang
темн
берег
##ипин
##инск
##ида
антиф
мозаика
манж
##son
корона
8017
сз
сяоми
ke
##tin
##bi
корицеи
дядя
fil
плюшка
ящ
молока
ind
холодныи
фитнеса
треуг
останкино
тп
##ital
батарея
pi
##лика
##янои
158
бриз
подгуз
выр
##su
##осол
146
шоколаднои
голланд
арахисом
шашлыч
skin
вл
ле
рыбныи
краски
брикет
микрофиб
##кр
##алочка
##астатин
##еиник
материал
##кого
##еле
инст
жемчуж
лож
мв
шоколаде
asp
##arm
рыбные
никель
##off
##ельная
голубцы
##олога
импульс
дисп
##ьер
016
угольник
очак
ультрап
кофемаш
by
tk
##хим
##стон
индук
##орубка
ручки
масла
##аля
розовые
горячая
октябр
ja
ter
треска
анкер
малинои
ideapad
покры
полусладкое
маша
##ектив
базил
кубаночка
ножницы
км
смеш
леснои
веш
раздел
охота
##76
magic
##ованная
##aser
антиб
оливки
clean
lad
веч
##ды
##vc
##офе
сочные
американ
мандарины
lays
2500
кач
##орка
лазерныи
огурцом
баи
бояр
черное
греческии
##point
##жи
##lat
scar
броилера
##ред
суфле
друж
##ецкое
нурофен
велкопоп
##веж
##kb
универсальная
шипов
pin
отварная
крыль
новосиб
платеж
пачка
наклеики
дневник
sin
123
пурпурныи
##84
инн
марш
соком
клубникои
печени
пять
##икои
уход
kl
hdd
точилка
inn
place
нескв
растворимыи
подсолнечное
пнд
мельник
крылышки
vi
##ята
##her
море
##etta
малыи
матовая
##ывания
воздухоувлаж
морепродукт
туль
lt
бос
слива
укс
ткань
определ
табак
сувен
образ
отбивная
лам
##уни
##бас
##рих
##ulse
бюр
смазка
несквик
заз
##авл
пек
слоеное
##яг
##уха
##ьян
совет
феликс
et
ваза
биоиогурт
tg
жиз
одеж
ментол
корниш
pg
аа
##лением
здоровье
антифриз
аквар
yellow
жок
подушечки
em
чик
доль
##эр
аэлита
##abyte
gigabyte
бородинскии
мюсли
мфу
металлу
сувенир
rp
glue
обр
unique
стак
дарницкии
##force
сыворотка
log
иод
шард
кукурузные
##кул
##орот
бавария
kingston
dark
компьютерное
растишка
маионезом
жидкое
меч
пш
пеппер
азбука
уров
разноцвет
leg
игровая
tc
грец
киндер
op
##шин
кофеварка
vin
ген
картошкои
куринои
расческа
киров
флак
объектив
сзмж
##79
##ими
дары
kle
сочныи
тач
##jet
пиву
##asy
таблетки
ремонт
##еикои
жокеи
##остои
собств
оксид
choco
cu
бот
сф
осн
##ots
тд
##енскии
барс
##пром
горчица
воздухоувлажнитель
301
##обрит
кухня
##нд
арг
склад
##ake
##рт
cn
nes
##тация
оливковыи
отрубями
##енко
##ежная
gx
диски
##ider
275
бумажные
маракуия
good
ix
мс
570
##ade
зимняя
сальник
хорт
корея
hotpoint
autograph
алмаз
блеск
hi
kar
tea
##ona
ягода
октябрь
port
консуль
##ному
##ьев
шаров
регул
ребр
искусств
месяцев
##оян
подр
цветные
##ением
часть
пластмасс
чаш
##эм
##илки
##ави
кафе
золотистыи
блуза
отдел
заправ
стаб
tur
stand
соленыи
##ессион
dm
##юэль
##ису
256
шубои
##мель
##лам
канц
ef
капель
##ily
волог
##buy
cab
143
экшн
gar
vic
пин
##олит
##амол
телес
615
прямои
урожаи
bat
отт
брем
грудки
энергетическии
рыбка
smartbuy
счаст
розовая
уплотнитель
фрау
##бы
##очками
солнечныи
наггетсы
023
чаю
borof
уксус
sat
сибирскии
##ированное
borofone
мужск
фасад
насос
бондюэль
мистр
сенс
##uty
##lett
##ound
гофр
самокле
прян
пластырь
525
спар
##ивающии
life
##аит
сладости
открыт
левая
индукционная
flex
амур
халяль
водол
кнопка
тюль
gf
сандал
##ith
крепление
коробке
##мат
edc
fel
вок
пг
##ek
##my
грамм
6000
base
203
прибор
экспер
us
медиц
кабачки
##vi
трески
клас
винил
солод
##anc
##осодержа
##ински
nivea
##анцы
резан
баланс
грилем
безалкогольныи
чоко
крафт
##ляре
деревенскии
корзинка
черносливом
ren
моика
хор
кастрюля
песочное
техн
видеопроектора
##ициловая
1100
слон
orbit
доза
чем
##юкс
летнии
офис
круассаны
ментос
бюрократ
fru
зуба
альфа
крышки
отборные
аксессуар
hr
rx
##ильныи
prof
стрит
тонер
гермет
##мол
cot
ирис
мистраль
защитная
декоративная
ягненок
ritmix
im
сила
pet
##унов
032
пудра
дикл
среднии
удал
традиционное
##низ
212
##raft
##опролол
rose
##яш
традиционныи
скидкои
горшок
ah
щен
карп
деревне
се
202
экстр
ржаные
окрошка
рф
##тая
##вод
##89
кость
univ
белье
шардоне
dw
hm
##адин
##omax
особыи
kitch
жемчуг
кофемашина
nano
##еткои
музы
мног
риф
126
семья
##чки
##ersh
ki
пц
орт
кубаи
ввг
цеилон
оладьи
студ
##аиджан
отборное
дезодорант
птица
hand
клик
стаканчик
листов
gtx
bag
##ебра
mddi
тк
штуц
нео
плоскии
##дам
cream
хинка
978
##офенак
шап
##ence
кости
хлопок
мусс
саль
тирам
##by
колбасои
next
холодильник
агро
фармст
штучка
wor
рен
##ияки
плавл
микрофон
dol
ft
##52
##яка
зерно
поб
чернои
##ory
##ентныи
уха
##ament
утр
##ивание
perfect
her
hig
##иков
гриле
хрустящие
черем
##рок
##руд
диклофенак
lo
бас
##ls
##late
cola
робот
азербаиджан
##леные
рулон
alp
##ивания
##ровые
московскии
шаурма
фг
113
овсяная
##ематоген
шпатлевка
крылья
консультация
##еер
##мс
прес
купальник
мое
пони
##рог
orange
##лан
витам
масляныи
geforce
ey
##cher
brown
харчо
уценка
чаиная
purp
головка
fitness
дем
ванны
фишка
молд
крут
ночь
интенс
стабил
сс
жаркое
злаков
fm
бэ
лаб
верхов
моторное
vetta
пух
##иися
освет
он
двор
934
корзин
жесткии
##wh
144
хвост
pop
pure
ним
пас
##ающии
##case
##tek
##sti
индап
патрон
правая
бирюз
океан
русалочка
радиатор
буж
рыж
luxe
вечер
берг
##ws
021
примор
bf
усп
##езнои
скоба
коммут
рр
град
прем
prote
леска
вафельные
##орам
голубая
бисопролол
##сал
молодои
je
емк
ende
scarlett
710
##вич
вяленая
##ясорубка
электромясорубка
endever
##fer
##oro
пшеничная
калинов
презервативы
гамб
стерж
брусника
столовая
##ирующии
воз
##оу
##лаз
дома
##cial
rm
ака
подк
водолазка
так
уже
##инда
ушки
лакомство
головкои
венге
uniqueme
зо
россии
мусора
boy
##нач
семечка
033
терияки
экстрактом
##тан
plan
патруб
##овыжим
крепкии
помидорами
двоиная
брелок
##ковская
nature
теплыи
рах
блонд
##овыжималка
##аров
##ечная
флис
синтет
бров
##лод
##очок
##ицил
брест
желуд
канализа
##овицкии
штуцер
мишка
редми
бремор
коммутатор
##ировка
head
прис
##cool
big
pb
##con
##ества
массажер
mango
fin
чешскии
саира
##ушкин
берез
organ
##абрика
то
##арики
флю
трюфель
кер
##хв
свежая
свежие
zara
бенз
тыква
ах
##рид
латунь
##алап
##rex
соковыжималка
крепежныи
ae
##отон
желез
брюле
собои
штру
отд
кубанскии
##ела
##осф
кислом
чаиныи
гавр
жас
бездр
потолочныи
##олис
##нист
ly
пож
##ового
выд
алюмин
приготов
bc
произ
стат
белорус
средняя
estel
fx
##мы
##stal
шампанское
630
den
ht
kап
баика
санкт
лизун
буф
штук
инъ
витаминныи
маринаде
tn
пыш
##лсберг
кавказ
##уи
кофеиныи
решетка
бутерброд
##вин
255
benet
пикник
деревянная
##осодержащии
cer
шпик
9900
единор
бужен
nv
ус
сырники
суши
сантех
um
дед
##ских
чизкеик
purple
касс
##адка
##узи
violet
умка
киев
basic
аналог
индеикои
эналап
ang
малышам
пепперони
эналаприл
##еннии
##онь
торн
##ocera
тунец
kyocera
##vin
вклад
яркии
kур
килька
просто
эксперт
низ
##бук
трубы
сушки
подгузники
баг
нано
##енда
##ющее
tef
active
nova
зеленые
##язь
##ционныи
улитка
az
days
колор
##esit
эрм
маринованные
хон
белгород
топлив
нефильтрованное
sweet
aspire
girl
пастель
080
war
эталон
родник
puma
бега
##рин
балык
нк
##ить
##ожки
406
##lee
редис
cry
рахат
os
иэк
меж
##оксин
##ирование
рогал
бетону
iv
tit
мурав
медвеж
vel
мистер
##итныи
приоск
горькии
defender
музыка
хинкали
ore
астра
##lec
ассор
##ольное
яблок
##цин
##mon
плот
gn
ti
прог
##авир
спа
пари
телятина
зл
##онат
старт
##стро
залив
стики
алюмини
велкопоповицкии
114
sta
медовыи
##ыкнов
зазем
трен
parli
сосис
заварные
expert
лепест
зеркало
торнадо
040
xer
синие
char
максим
##ерка
##овар
##урка
печеныи
монаст
ko
##ватель
##атура
##ale
колбасы
гурман
fb
король
sfm
дав
##авод
156
антип
##erson
##марко
ванночка
роял
640
sg
##ифор
stu
fam
весовои
распр
новогодняя
специи
тирамису
##але
aro
шеб
arm
диам
res
tru
##ерч
капитан
мясное
рафин
челов
штрудель
##ust
боб
воль
нан
пои
сало
strad
ear
кув
шеика
##iva
инстру
high
bre
##реб
305
##ary
131
волж
сибирская
boots
hc
##еста
##uno
городскои
хлоргекс
рио
##ирное
курагои
##000
тран
audio
немецкое
бинт
##емыи
смузи
##еиц
головы
zen
##ония
пары
шваб
hyund
parliament
фура
капля
эксмо
быт
##оот
##енол
перл
инмарко
двиг
кормил
акконд
услуга
009
звер
апплика
bella
гавриш
hx
чи
##bar
наша
duo
триммер
леикопласт
болгар
баварские
фет
комнат
овсяные
вертика
##орамка
цветок
мускат
маник
увлажняющии
индапамид
kx
картофельные
томатами
неон
sky
bd
wil
##илли
брян
назнач
тропическии
дружба
hend
wa
питание
сахарная
пуз
##ников
мягкие
установка
hyundai
##оганов
переки
hg
##tep
022
mot
зебра
овощное
контакт
ароматныи
свеклы
gloss
perfeo
фгос
db
day
белои
медов
медаль
лосьон
пвс
высш
концентр
поз
тир
##анты
обуви
мебельныи
бровеи
китекат
узбеки
фигура
полиэ
шаровыи
навол
xerox
bp
фер
##олон
светильник
компактныи
мальч
lumin
датчик
##вастатин
ху
##olut
##ха
##ельные
##ins
##elle
абраз
двухст
цепь
109
русские
черноголовка
##цева
творожное
##uxe
приосколье
405
курочка
нить
овсян
##киз
пастилки
free
горбуш
геркул
тав
##кол
##шина
##еннои
adid
знак
маршрут
##уса
окра
всес
zan
карлсберг
плед
малая
эвкал
бух
spr
nut
ut
эласт
стик
флиз
семгои
##ikor
формула
##ave
impulse
gri
lib
атор
лоз
тал
##lim
##однои
ореховыи
готово
польша
##ичные
слим
вологод
древ
халат
ежев
ребра
macbook
hard
шот
навес
богат
фик
##рика
##имент
двуст
миринда
узбекистан
hl
убор
подстав
run
sq
бло
ким
прист
скреп
elikor
бритья
бита
цыплят
tefal
сул
##ноз
стамм
палпи
деревенские
вял
накладные
gv
lim
сочная
фуд
лек
##ивныи
детск
##ачок
рт
берем
все
батареики
престиж
стабилизатор
##arta
зарядки
кпб
##арис
антен
моц
##ram
##опч
замор
история
шерст
##льник
покрытие
трусики
##етин
плетенка
digma
трапеза
тих
##фи
обыкнов
липуч
кормилица
##рен
##овские
##ольз
0001
gem
категории
герметик
ру
маленькии
070
чеч
##ын
груп
стм
##ровка
парм
шпика
протеин
соевыи
##лада
5900
легкии
low
нв
##ляж
##stick
глоб
screen
тканевая
глазурью
монастыр
зеленое
##окомп
мочалка
пылесборником
ацетил
нектарин
жасмин
ряж
острая
корнишоны
dan
rk
##мп
##усов
черни
##ифт
сирен
геркулес
##мз
##dr
экспорт
часов
##прессо
хонор
rog
collection
гарант
термост
дозатор
работы
леикопластырь
henderson
mh
зева
череп
берлин
##ody
##amp
профессион
наружныи
олимп
аджика
четыр
виз
лад
##окол
##игурт
##ачка
##iron
калифор
рисунком
fine
рим
юни
фруктовая
молочник
фоторамка
хк
стреп
энер
тонкии
кожеи
космос
черв
inters
сандалии
нор
##ландскии
кисломол
уст
яблоками
бегем
##wa
водорода
врем
gray
##zer
затяж
теляч
285
ароматиз
maxi
франция
hip
##экс
сыворот
узбек
##циеи
##зан
##ивающая
молочное
2016
ворс
kru
014
018
увел
##ricot
ку
##pic
зеленым
электробрит
торта
рыбная
bomb
юн
##xl
дн
как
реж
##оят
##енька
полка
comfort
толщ
всех
##lette
label
чувств
124
плеч
##епар
паниров
гематоген
солнц
gil
уаит
сухоф
эрмигурт
interstep
густ
позд
##еем
сырная
иглои
разливное
ацетилсал
полит
фунч
тыс
скобы
унитаза
kл
ze
караваи
133
панк
abs
бабушкино
всесезон
лука
поч
лиоф
творожок
##mann
disne
ade
bub
hol
##ерская
подж
пару
142
шоколадно
мягк
абс
мыльница
фармстандарт
kn
kофе
ореш
лов
амокс
##одажа
silicone
утепленные
##хк
##унки
парф
form
фасолью
вязанка
design
dove
зонт
##ыт
картина
##еиные
##разол
судак
стои
##usb
оболоч
репчатыи
хранения
леб
##ороннии
голден
matte
vita
эст
##ussi
##etic
борж
крупная
бе
мешки
шал
##гон
##ige
##berry
durac
##oho
zanussi
прос
амлод
abricot
механиз
шелк
pm
чак
чабр
канон
высо
усиленныи
fra
##way
##iger
прокл
полосат
гамма
вир
грип
красно
волна
краснодарскии
koton
амлодипин
кета
маст
##cky
соска
фруктовое
полоска
book
бед
хурма
##lo
##ыва
##cre
новосибир
верховцева
вкладыш
сенд
##екет
беляш
медовик
глазированные
шпроты
dri
rd
пирам
##иk
##окон
vcland
хозяист
мидии
эспрессо
аст
меш
##cl
##енч
орехами
креветкои
бронза
gro
мира
##елия
веселыи
дожд
бурат
пед
##кис
клеикая
крабовые
парацет
валь
##ден
царская
блистере
tm
##ger
##las
##омбинат
видеопроектор
bm
lac
pk
пент
##хо
1118
##less
запеченая
окорочок
do
##одв
##ank
компр
закл
ресниц
клюквои
bersh
set
брт
маслины
угловои
парацетамол
fo
лм
шеи
##инское
ста
##истая
основа
заварное
ребрышки
маршрутизатор
##оле
##ечн
травы
фонарь
гип
пустыр
дорож
хит
##ежка
ваннои
фруктоз
магия
бонди
съем
белочка
##оронняя
kолбас
взрослых
боржоми
plast
пазлы
mask
kg
##иум
дело
##пуск
нижег
перекись
kd
##cent
колодка
нежность
rf
##уа
##очн
kом
содерж
nok
замен
диаг
##гинсы
штукат
антенна
биб
субл
фант
##гур
лапш
морковныи
покрытые
александ
вег
рэ
##илк
обез
##ровое
elite
ухода
нимес
##ослав
кофта
rev
курага
саб
##елек
смак
##out
вкусня
insp
спираль
део
рабоч
клюквенныи
синтез
чистящее
bh
##53
natural
fer
##опл
фильтрованное
пакете
##onghi
mel
ель
жира
минтая
соленая
слаим
презид
felix
тут
##боро
##ионная
втулка
ндс
саше
van
бах
двери
чабрец
nr
sum
шиш
hob
##икол
сосна
звук
сдобная
органаизер
определение
##vis
##рием
северная
##ube
анализ
встав
может
bur
##мастер
##анная
##епразол
neo
азерч
нежные
##вол
##нол
##окко
##еция
австр
cases
маффин
чикен
pt
сибрт
облепиха
сия
##скиватель
##еби
варенье
один
крестьян
азерчаи
yoho
##орныи
прессш
dg
риг
суль
колод
beauty
with
##го
бело
магнат
моцар
##inz
##остоп
whisk
стальнои
##иньон
##игрим
лилия
##раж
пород
##ffee
ломтики
far
##yo
##атон
##ирка
весовые
животные
савушкин
шпинатом
англиискии
сез
##тяж
may
core
сибртех
аир
##бургер
##елл
перф
wk
напитки
малярная
easy
pull
wood
сц
карат
макар
усиленная
принтом
pil
лент
шоколадная
назначена
gel
вб
##иные
шары
цыпленком
атлант
gosso
121
##cess
сендвич
##ую
королев
##альн
черкиз
мышка
ue
мег
микрофоном
ржав
rtx
сливках
df
памп
##лава
##абл
188
глуш
корзиночка
деи
корж
##авит
сочник
радиатора
графит
президент
##пласт
##очных
##erry
пола
девочки
##жанка
##ицерин
телескоп
##икоп
204
карка
маркет
bron
хат
##мур
##ate
став
спички
любительская
060
mk
119
обраб
аморт
предм
кулин
выпечки
960
##фер
##итюр
ванильное
duracell
tok
бен
орешки
монтажная
фк
##шево
##етта
егор
##юта
##овское
##inger
деревенское
процессор
голь
##альгин
формат
oral
модель
лидер
собственное
шебек
670
bit
sea
##gon
##ежская
бананы
ферма
ovs
maz
глазированныи
смешарики
fan
ox
ori
добрая
высв
##огорск
rexant
ham
киз
136
брилли
женс
##sse
газовыи
mah
512
vit
зас
или
раи
##last
сухофрукт
мур
мим
2700
гранулы
мальборо
генер
инъек
панкре
aero
луг
карман
ммх
перек
кисло
dav
jr
геп
риж
сифон
блэк
##izer
дуэт
##веис
стен
купеч
оригинальныи
iii
пазл
тс
тавр
цеф
##овом
##ическои
##ato
топл
телятины
wt
пилка
##osh
мягкое
горячее
плакат
крымскии
уши
калифорния
буратино
216
9021
челны
животных
удобр
чистюля
рукоят
dp
pas
заст
шпилька
лосося
жарки
лопата
гибкая
квашеная
рп
сед
##ien
кухмастер
deluxe
керамика
ясно
караб
печи
авг
бабл
босон
ret
sie
##азин
петров
##dex
фисташ
laser
эком
##ado
начинка
комбо
бордовыи
фабрика
505
##куль
##gen
##альных
полз
she
французски
автоматическая
xt
печат
алл
chu
меланж
злаки
490
ппр
##идер
##reme
перлам
томатная
совиньон
стеклянная
##риемник
колер
европодв
мексикан
армен
031
торес
тераф
kin
##ласс
017
моркови
слоеныи
совок
постель
практ
доставка
кувшин
joy
вед
##lb
плод
royals
имбирныи
бирюзовыи
kарт
хим
орх
##ительныи
inf
энд
415
tes
непр
цемент
азовская
глюкоз
фрикадель
крутои
всп
стоика
##рум
##оба
##star
колеса
euro
единорог
ролтон
##ersal
хреном
второе
dor
##ico
603
##аги
##аха
малю
##ионныи
персиковыи
карди
отрезнои
бриллиант
##ема
##ley
спк
страна
glori
коньяке
slims
баих
fd
nt
1600
фрикад
нижегород
пест
##ального
fir
бк
##cs
##амот
##енькая
сливочная
рябина
ацетилсалициловая
яич
##ette
camel
gillette
kолбаса
eg
гламур
добав
малютка
пуш
##рамон
141
семги
тапочки
аргент
эвкалипт
inspiron
##иклов
##исепт
оцинкованныи
пустышка
пекарь
шиповник
панкреатин
бо
##cend
спас
стеклоочист
prest
пилигрим
гранатовыи
##мал
##орос
##еская
##еиская
омепразол
печеночныи
приготовления
##lin
трк
маискии
текстиль
ряженка
dra
mn
лод
##ld
##алки
птиц
кухонныи
цитрамон
фирменное
лезвия
cent
##сет
1800
##икам
222
кашпо
calvin
crystal
дам
##ге
резерв
кольцом
cont
mul
сон
##иес
крепеж
крепления
балтиискии
сельдер
820
##олин
501
##ителем
colgate
подсв
##ененныи
##осод
##ito
##oyd
blk
сушеныи
ржавч
gas
162
019
##pper
окон
столовыи
expl
предметов
нп
##ыка
##идныи
##ковои
##огриль
gj
кляре
##вз
капсула
топленое
гамбургер
bot
инс
яблочно
джинн
рыбои
delonghi
беленькая
##игатор
предох
шпикачки
##ожа
302
глицин
биол
разноцветныи
studio
mos
гин
##вас
##erra
острые
трехс
ff
верс
гиал
##юш
##оля
глазн
карамелью
platin
vr
##инок
женск
xxxl
аторвастатин
fv
влаг
##ючения
слаб
бочонок
fruit
##окомплекс
фосф
##слив
контур
сливочном
финиш
грушевыи
татар
рогалик
kiss
фа
холодное
silicon
пи
уни
скраб
палочка
стирки
бездрожж
распродажа
nk
ty
##бье
##ony
колено
творч
##irt
паут
полноразмерная
хуав
730
штора
##enaid
пчелка
kitchenaid
##ателем
##амент
##иешки
русское
нарезке
beko
660
утка
##ken
окер
scha
мама
2170
косичка
жидкии
мятныи
кпп
испания
буженина
орхид
хуавеи
##спир
инструмент
hu
виск
##ители
отс
электробритва
##липс
##инал
##ецкая
после
метал
best
мультип
диспер
esse
##ji
177
клубники
камб
серебря
лисма
##ерскии
##окомбинат
##rise
milk
шестигр
блестками
##ane
##антин
кухни
местн
##heiser
стерилиз
uv
дэ
##истин
##окач
pasti
омск
heinz
ульт
жевательныи
морозко
широ
лонгслив
снятие
базилик
aqu
cw
рс
##pro
##анга
##адь
флор
леггинсы
клеенка
гуд
##нв
304
комба
выбор
флан
##ota
маикоп
работ
handstick
поджарка
европодвес
pastila
mx
воб
грыз
карниз
микоян
утепл
beer
ветровка
заточ
статус
bx
##отек
##arma
##бар
ванилин
тула
чебурек
organic
нед
пб
##ечко
барни
полоски
just
##истое
##агор
пояс
кошелек
листья
араб
гелевая
ерш
патрубок
солнцеза
фрикадельками
litt
##ораст
##евит
##унк
hipla
вина
шаг
##абар
направля
овощная
поворот
кен
манты
пах
яица
##гель
##kt
марта
043
угловая
тюльпан
mia
аура
дос
анест
кауч
##валол
промо
kia
tl
wal
кореика
медом
роялс
белоснежныи
манжета
tre
тик
##азия
лимона
денег
fw
stri
торц
kот
##инга
полотно
браз
##ании
##ali
салона
экок
выш
барбарис
невская
senn
dx
pf
кем
##mens
##щин
##enta
ананасом
пробка
fish
эд
корица
##окаин
фундуком
810
401
265
булочки
пастеризованныи
water
transcend
cg
##cor
##elli
средн
titan
увелич
таг
##цом
камеры
распыл
карбонад
малярныи
темпура
ля
есс
##пак
лимонныи
окунь
гиалур
кru
##утер
##ene
chair
молочко
омега
эфес
традиционная
##джи
siemens
кruче
##ике
##ella
смеситель
магнитныи
лизин
тя
##вар
арсен
одея
овал
макаронные
спортивныи
##ским
##егаи
##язка
левом
сенежская
platinum
цер
##est
##унд
гаикои
##ающая
запеченыи
востока
bruno
трехг
клипса
стержень
предохран
руз
брют
475
sinbo
ски
минут
песок
sennheiser
168
192
курабье
червяч
самара
фиксатор
fortuna
фруктозе
##up
##опол
общии
3100
удон
бочонка
мад
рв
цука
##етто
##атр
спеис
инер
отверст
маяк
body
вита
чим
##uf
крок
подлож
eye
чиаб
дт
пино
рта
шам
шея
##ария
эклипс
лукум
крабовыи
ваис
янта
виктор
хозяиств
multi
gw
шах
алта
universal
whiskas
rr
##cc
листовои
литр
ever
тени
##нение
sdhc
медовуха
беремен
kruche
bv
##59
противень
восстановление
киевски
экомилк
ast
фильт
##olution
армения
зан
зразы
##юра
##ину
галст
комбинированная
electric
макияж
##илет
запеченные
elan
##ount
techn
номерам
емкость
желтые
ясень
##икловир
ot
##yx
##bon
нафт
амст
зажигания
eo
ikb
царь
##лект
##упроф
лесная
виолет
dk
эсп
кренд
анальгин
##iba
ибупроф
лизиноприл
ибупрофен
der
ядр
##аныи
водоот
вытяж
база
глянц
you
пион
фарма
опл
фотоб
китекет
миндал
тормознои
альпен
архыз
курои
2121
капсул
##ству
3302
mol
liber
анкерныи
##вел
коллаг
настоя
руковод
август
gy
бм
мпк
920
910
mj
##иное
##itch
тема
lego
ган
сх
текс
корвалол
##rea
полости
2400
амбр
##силс
стрепсилс
dou
129
##еискии
##готов
prin
ползунки
kam
ни
пем
##овина
##ise
зеро
прямая
новосибирск
аид
верм
нива
ям
##кур
корен
молнии
аскорб
ok
гекс
корд
##арден
дарк
сезона
wm
разд
ванна
##енками
продуктов
елка
взр
хозяюшка
little
эсса
амстел
bir
##веин
##иновыи
пластина
лаванда
восточ
смородинои
зерновои
паутинка
dar
##три
рублен
##ничное
терка
символ
камбала
tro
лещ
цин
##хол
акрих
анти
особые
дымов
chairman
одеяло
sj
ксил
##ька
морожен
заднии
пузыр
smi
леди
ваит
оптима
антибактер
механизм
590
беис
цик
##атта
семен
314
лориста
##фона
газир
флеи
амортизатор
виб
корн
amd
швеиц
corsa
шапочка
всесезонная
il
лар
##ламент
отпар
глицерин
бруск
нафтизин
лол
сатин
шато
##имер
розовое
aura
flash
каучук
joh
сост
6500
светлыи
диет
бактер
element
швабра
##онки
черенок
опола
плавки
dry
быч
дак
402
отоп
tee
формовои
мишура
маленькая
нераф
oy
##ial
##ивин
рулетка
тимоша
карабин
шля
##минт
##овыми
##field
гос
рыбы
баранины
кум
чест
303
первыи
ацикловир
гнездо
rosso
газированная
##комп
дрожжи
indesit
cru
национ
мужс
старом
тропик
чернила
wp
резина
деревня
##ello
телятинои
процессора
laserjet
отпариватель
990
декат
##инак
##остями
флом
time
чебуреки
заправка
protect
декатлон
чул
гориз
063
мишки
уцененныи
glam
бегемотик
bubble
мб
финскии
##околь
куриным
винстон
бордо
ручками
golden
мерид
хаус
охотничьи
гарантия
фрикадельки
kt
##иво
anti
hair
учеб
бокал
night
рум
штур
электрогриль
расш
волшебное
экокожа
hw
ис
хво
чуг
##мера
##56
##орол
##атур
куры
рисовая
смартфона
ледяная
##ище
модиф
кишечн
фонар
босоножки
сег
тум
перм
ярослав
милкис
tall
шкат
##ошь
051
ретард
##ya
##итра
##истра
profi
косм
adv
выпечка
галстук
штатив
##оил
смаил
молния
плавленныи
milka
прага
staff
штуки
напольныи
тушь
##енбург
kонф
терафлю
wc
ес
##ентуки
2123
city
го
лаин
коля
порог
акварель
kомп
##wood
черникои
корпуснои
надув
фисташка
гом
ког
фур
##реш
бренд
сигнал
кедров
коллаген
ночнои
сухая
рисования
универ
гигант
рыжии
ставроп
хир
##онов
плеер
сокосодержащии
##ящая
велюр
часа
лечо
клемма
флеицевая
kri
long
##оприемник
медовая
nikon
ricoh
вешалка
мечта
david
912
kon
ws
##ho
новинка
чебуп
fuj
след
149
##ество
потр
conte
патру
акрихин
вх
зг
лем
перфект
138
mate
творожные
##endo
cable
first
##нил
##br
зубочист
##тием
холст
ultima
сибирские
противоударное
руль
##аси
полная
##els
pack
зернист
однотон
nesca
mal
np
##дов
станд
слип
мужч
медь
neon
041
дубки
мимоза
##илья
0100
##neider
ультр
ступицы
vie
ве
уф
хем
семеиныи
парламент
##компон
респ
смс
весовая
мореи
посып
сушеная
струч
##илакт
##ject
sven
сезон
машины
махр
пудинг
фильтра
левыи
стул
##ичник
604
попкор
обжарен
лапшои
кб
лог
слабо
пульти
шебекинские
kрас
сно
##опед
965
##летнии
правыи
фум
полныи
акр
лазерное
брусникои
чечев
fus
рел
##жур
карн
пиканта
navig
sel
##динг
##free
акц
schneider
##химфарм
adidas
затяжное
колодки
пь
1400
альт
valtec
wire
удобрение
дисперг
wl
##zi
два
##ran
сменныи
изготов
самая
русс
лотте
боксеры
вбд
john
комаров
169
плащ
конти
провол
копченая
оригинальная
полотенца
harper
диноз
tyle
xb
бака
##well
##ращ
##ических
монт
сельди
истории
хортиц
маникюр
миндалем
беисб
pul
рок
##цем
##онал
213
##ачи
солен
##ющиися
кириешки
дальнев
ультрапаст
древес
дель
253
корп
узи
эфирное
сапер
титан
грм
сто
##езан
##остан
##ежки
053
имм
apoll
меридиан
##яжка
##mex
вмест
патруль
##омаг
##ann
211
2100
deep
coffee
хортиця
food
kor
нью
тис
##kс
##езе
свч
##артан
##igma
##инго
термос
транспорт
ая
гаст
друз
##онеж
ster
think
венские
минерал
негазированная
шлифов
##тера
##сып
ноги
тостовыи
kromax
crown
очаково
vinyl
концентрат
est
пва
##оке
чесночныи
деиств
mq
гра
сланцы
спел
##sto
газа
##астериз
marlb
армавир
радиоприемник
одноразовыи
категория
ополаскиватель
##утор
печеные
##льная
##ульт
паровои
monster
кабачков
валерианы
nescafe
riv
##орб
601
красав
соединительная
кирп
patri
бедра
гиалурон
double
аскорбинка
090
aj
##еро
##ествен
701
##ирования
real
ново
дуо
здоровья
навеснои
парфюм
iq
##арские
шлеп
hoch
##ирующая
тартал
pen
кид
oil
крымская
сердечки
faber
заварнои
борт
##сия
сладкое
ржано
tokyo
oysh
##елло
валидол
девочка
024
exp
##ландия
кузя
подклад
пахлава
саперави
пастила
семеч
томатном
переднии
evo
глубо
garn
фарт
##аибои
белка
special
840
прорез
ванил
меню
агрокомплекс
жемчужина
exployd
911
жнв
кино
белок
флам
##54
детс
кашля
dvb
льня
##пирон
офисное
оль
хеин
##fun
##ian
##gr
черно
2112
доброф
проточныи
солнце
горчичныи
канд
щит
##ольскии
kudo
одноразовые
диагност
деп
кипр
##цилин
##ме
упа
##ats
надеж
дачныи
покрытием
corsair
бу
##vo
##58
##умб
крутка
##иных
машин
##ужа
линза
простая
тунцом
перепел
пенталгин
ves
бои
лвз
хуг
ободок
глинт
новгород
борис
ящик
полиэстер
таз
смол
трио
туника
вала
плоск
пальчики
оцинкованная
вялен
звездочки
автомоб
веселые
innov
alpen
690
fh
пм
фук
##лоф
##ерские
##ометр
орион
кальции
глянец
sandisk
lady
770
aeg
##пп
карри
##led
срез
fash
штор
172
маргар
медныи
##иджи
модуль
сказки
резьбои
ряба
пончик
ken
vent
206
поролон
черном
настенныи
игрушек
ают
гм
саф
##ицел
148
трокс
срок
rub
сметан
саил
облепиховыи
metal
тульскии
победа
чиабатта
мх
##тус
##ях
крошкои
перфор
##ящии
форс
секрет
инжир
наволочка
беф
##гер
##орье
##очаи
видов
##рыв
only
обезж
kinder
аргентина
kотл
попкорн
вата
##енком
табач
221
иогуртныи
удар
pap
syn
pero
rio
пип
##евское
амбер
сласт
козинак
королевскии
гуаш
zim
сак
фест
##ело
##ork
##ничная
рыбии
копчения
##aker
шалф
marlboro
cover
jan
nh
sab
vip
##kat
##елеи
##aline
139
кусочками
копченыи
пенза
туборг
комбинированныи
интенсив
беисболка
kron
oem
трава
##чныи
купаты
эффектом
энерджи
1050
##руч
марг
русыи
копеек
energizer
фирменныи
dolce
bombbar
##lip
##илис
##евик
вида
азов
сервис
бисквитное
ткан
natura
виктория
саилент
loren
мул
пуп
##sc
##дз
##57
##иция
малос
aerocool
pea
##езия
индия
0000
матушка
сочи
пятилет
доброфлот
##oneer
ураль
тенеи
vente
чемод
чая
мария
roya
eb
uc
##ula
подъ
напр
серии
любимые
##opro
велик
standard
##омагнил
неб
физ
##иат
##орит
027
картофельным
##ronic
желудки
сиреневыи
руководителя
изоб
оридж
шаровои
##imi
ягодное
греча
коричневая
заднего
металлическая
строительныи
окрош
pioneer
rw
##биф
##цил
##енного
##евка
морк
shirt
фиточаи
резьб
пышечки
bol
ment
муки
2200
столичная
449
лечеб
морепродуктами
двигателя
панировке
дур
феи
##олл
##утин
spf
кепка
##евых
##урет
0004
камчат
использ
пасс
##ним
заказ
супа
шпа
фикса
хугарден
lav
пенка
1300
project
inc
укр
слоя
карбонара
ежедневник
восточному
780
эг
207
сладко
полусладкии
ежевика
lat
##ивер
венскии
крупныи
блюд
дозир
grass
россииское
человек
экспортное
disney
back
чабан
сыров
сладонеж
молочнои
шкатулка
cur
mv
nint
гк
##мот
настро
##отекс
стужа
твистер
банке
рулетик
буренка
литовск
хрустящии
футляр
сильногазированныи
алмазная
nintendo
dim
wf
лиц
##окал
lucky
serie
fuze
хаме
макияжа
штурвал
ri
ночная
чио
##есь
обсл
безе
фито
баранина
благов
треугольник
хеинекен
dog
кут
##pod
бельг
##centre
иль
рн
##фар
##анта
##уны
мкр
##master
легенда
аналоговыи
фурацилин
hochland
ker
147
южная
маяма
баиховыи
ик
указ
##ене
компания
горная
лимонная
защищ
вертикальныи
gin
бязь
герб
ши
##ten
##левскии
хлебная
золушка
помидором
актим
плюш
губки
торг
бискв
##кидка
резиновыи
nord
жигул
bn
rob
##онами
ягодами
велос
горошком
дополн
безалкогольное
тромб
люстра
калуга
птич
новогоднее
caso
глазурь
хорош
трехгран
жнвлс
ger
##ior
украинскии
сосискои
иммун
151
розмар
котлет
свежих
мальчика
don
##арк
сияние
баш
жуль
##иклин
##lay
##ишныи
антистр
продукты
планета
magn
que
dun
mult
стронг
повязка
переходная
кеторол
хлоргексидин
солнцезащ
цир
##енным
##rot
0002
антител
sela
гипсокар
утепленная
klein
надежда
стали
обнов
женское
##афан
##ppa
электро
612
att
кровельныи
невид
полимер
нол
хм
##gh
199
живои
паприка
грузински
звезды
cx
km
##лоп
##анит
горянка
погрем
ультрабук
мякоть
брянск
отсут
флеш
лимоны
##inter
активированныи
языч
худож
navigator
пятилетнии
##лим
композ
mirex
царицы
косметика
риностоп
тутти
oysho
рап
##овь
клен
питатель
отварные
травами
бочкарев
крестьянское
подъяз
ест
хутор
##sar
##ате
inter
##илак
normal
кардиомагнил
ew
апел
511
первичныи
взрослыи
бефстр
чемодан
pw
палитра
фасовка
прищ
лосины
дракон
media
баикал
сник
##ыг
##ите
пряжа
мультиз
аисберг
lipton
топливныи
штукатурка
lj
mir
##тал
##вп
футбол
камаз
adata
thermex
жизни
пирамид
сцеп
jun
##имакс
##едр
##иках
выпуск
335
амар
фрутти
сардина
подрост
smile
fix
пиф
1080
6100
мультив
арома
полноразмерные
хатбер
националь
велосип
dj
land
сом
штекер
5100
##движ
раков
ессентуки
##енск
подкл
област
##chi
028
накле
половинка
серебряныи
актимель
rock
tot
своб
перг
inox
угрем
вырезка
медвежонок
зм
тониз
горбуши
лебед
перламутр
коляска
vil
пись
##ah
##ones
профитр
копченые
ошеиник
лопат
пантенол
lond
vog
тит
фля
##озавод
суст
##блок
энтер
ореховые
glob
filt
полосатик
##ствует
lte
lot
лы
лака
##sd
##наст
218
вологда
яичница
подложке
kite
tosh
талка
цук
##kin
изум
завит
редук
кальмара
##soft
fusion
киприно
vp
##тин
##итив
##arch
##кова
алф
616
2017
ацц
ингал
колпак
покрывал
обыкновенное
860
знат
##ool
##ловская
605
##ованные
флу
имун
профилакт
ярко
кмк
##лаит
игл
палетка
палочке
кальц
hyper
изоля
американка
world
карнав
fde
олен
риз
хе
##емые
##тора
стекла
варежки
наружного
кабачок
янтарныи
худи
уровня
nokia
пляж
тигр
ход
##ивка
выг
разл
покр
microusb
турбо
лепки
канала
бумажныи
мдф
##остоикии
производ
арсенальное
hn
ссс
суппорт
молоке
антибактери
toshiba
колом
инеи
авекс
свитш
фисташки
вольт
горизонт
garnier
out
щел
стомат
колечки
полет
стран
катушка
eva
ластиком
нагр
##ewa
фломастер
лыж
чес
##vy
наим
044
биот
купаж
##ензия
nf
прош
черничныи
елиз
итальянскии
пульт
бергамот
расшир
gh
oas
риб
2021
клеев
ручек
##ida
радуж
электронная
покрывало
sigma
дз
дран
159
грудкои
tommy
рычаг
термостат
##cret
фантазия
тиг
фиб
чах
##sen
##ивнои
русь
042
515
085
воск
##югель
##ология
алтаискии
поиск
бибер
cli
луга
нипп
компьютерная
розеток
молочн
портатив
кальмаром
ермак
выдерж
жульен
hf
##урин
##ииские
233
глазные
lemon
##gage
виноградныи
нормал
souls
wireless
лакт
фав
##фы
##эп
##олок
##акрил
клет
рулеты
045
магн
молочного
закрыт
оригинальное
песочныи
barb
дымка
запекания
дрожжевое
уровень
нимесил
кирпич
фн
фиш
запас
восточная
norma
путеш
синтетика
fashion
dh
sx
##rid
клап
радио
оливковое
узор
кокосовое
высокогор
zimber
авексима
zewa
опр
mity
пнев
##gi
##опод
163
хлебоп
кофт
##acase
основнои
пищевая
lorenz
mitya
дип
##итром
157
178
sti
whirl
повтор
блинчик
##рома
клинса
baggage
nn
va
##ши
607
alw
слоен
mann
микрофибра
жизнь
сша
монолит
parker
daily
simfer
эклеры
рукоятка
юг
##пс
##dy
1250
##ительная
strix
055
антиг
mie
сборная
мятои
siber
##ителеи
##итромицин
pot
ач
шев
##имов
##ибри
##ача
ванильные
скорос
##ициллин
reser
are
cut
##кад
конус
##ami
анн
##оха
614
подвеснои
вокруг
флисовыи
glamour
слабоалк
рит
уаз
хаи
хвор
##одил
стразы
колоколь
краснои
##ose
##elly
under
##аксон
monarch
огурцов
глянцевая
##останция
сникерс
hil
kласс
##ьеи
##ven
игла
расст
365
пиццы
ирландскии
одежда
флизелин
пармезан
ваш
кня
##lash
035
индив
капсулы
##омбин
системы
браун
##ютаб
япония
очаковскии
черемушки
hom
ветка
рав
0010
##ashi
аппар
ромашки
долг
turbo
innovation
vl
##ame
вкусные
##umo
##obook
secret
царскии
пыльник
vivobook
мтз
sor
фра
круш
##ike
восточные
флакон
чизбургер
пружина
##ambda
настроение
ссср
aoc
bull
hk
koh
тамп
фо
шс
##нх
##чок
##иями
154
кофеин
солютаб
##uru
теста
пилс
грызунов
червячныи
свитшот
625
fro
##ju
вишни
новым
петрушка
гараж
sock
подарочная
хворост
суб
##цв
стоев
##its
малах
чудес
colle
сушилка
терап
геимп
деревянныи
шашлычныи
##редства
цикории
бефстроганов
dl
504
аквал
дверная
##ury
роллы
чистки
янтарная
гофра
рецепты
вальс
уб
##ожения
свадь
шоко
новот
travel
сытныи
lyambda
отсутствует
era
бод
##кины
деревенька
##еляр
switch
готов
чугун
ниппель
moul
тамб
##oria
whe
укреп
нитки
тюб
ультраз
hal
sing
tt
челя
##оки
##зд
##zo
поднос
602
перман
ось
238
345
назальныи
gus
kh
lam
мокс
##eo
##етти
##ило
171
proff
inst
9003
кальян
деревенская
блесна
funko
экзот
dtc
перловая
gour
##zar
209
microsoft
буквы
валериана
микрофибры
искусственная
капельного
волжскии
хз
шина
ярус
##кут
##bir
##ако
##исти
189
силик
haier
##ариум
песто
div
##мир
##екта
полир
бананом
умывания
avs
моива
накладная
вест
##юд
изаб
##еша
выход
грибов
антисепт
стиральныи
впит
##огащ
чаша
bac
dd
zero
сут
краковская
455
##ецк
стекол
##nect
097
телевизионная
таим
aaa
epica
cosm
состав
ориджинал
vg
##ератор
181
биопр
адрен
серебряная
amber
слоеная
##ago
essex
груши
глушителя
сегмент
антистресс
гп
лифт
##ити
полу
поляр
спаз
##ического
вкусов
кота
биомат
412
вяленыи
годом
бухта
фартук
mz
rom
ням
весь
суперс
балак
shell
064
maxwell
кислот
kupic
мультифруктовыи
заземлением
царицыно
kupicase
eh
##сло
502
##ted
класса
##ada
мете
птичка
крыма
##оизоля
##енбрау
tally
эвал
крюк
раститель
alc
##alls
юбилеем
льна
наличник
пончики
укропом
высшии
кидс
always
bite
yog
куд
щерб
##zon
##енои
##одонт
##ельская
обогащ
перин
##ачки
pharma
метроп
елочка
ballu
pprc
вырез
медальоны
ww
гкл
мж
хан
##итка
##ига
свиное
champ
гранул
сливочно
skyl
урал
стопор
одежды
складнои
fanta
мез
##аян
##кового
помад
conce
liqu
клинское
игрушки
##ублик
блестки
740
ide
ника
грибная
любимая
ant
elica
снежныи
кнопкои
cross
виола
приставка
гуашь
fri
ажур
маж
##енья
конь
обуч
газета
экв
вкусныи
аэро
охлажденныи
sense
пугов
970
кремовыи
rem
огурчики
сдобныи
целеб
праж
rca
гед
эска
##уния
##ебель
слож
##imal
065
пельм
paul
торцевая
мюнх
афанас
glossa
моцарелла
биолан
обезжир
чахох
kw
лекар
403
036
0003
рамкои
creat
бифид
фермерскии
drive
маргарин
fp
##со
##одея
##olor
ручная
miss
лагер
лагман
пылесборник
левомиц
pd
дабл
кроненбург
atl
отборныи
резиновая
селед
gate
сарма
феникс
прямоугольныи
лабор
lan
##еич
белиз
шоколадным
##inex
##ieb
крабом
полиэт
подсолнечная
восстанавл
шерсть
стеклоочистителя
пифагор
bou
##oom
заполн
dect
беспроводнои
peps
ленив
мяты
оболочкои
аппетитные
кофемолка
таврия
эвалар
метрополис
чахохб
870
аба
зея
##zy
клещ
##ливит
матр
ветчин
пищевои
ретро
четв
стародворские
ливерная
кисломолочныи
kitekat
коб
##юль
##zen
##арскии
цветочныи
котлас
##ажд
хриз
rosco
digital
legend
геимпад
левомицетин
сои
##сберг
##mol
подовыи
179
##огенератор
спаржа
xe
лу
пинг
##альт
##остью
3005
313
312
##еикер
##oko
jaco
ржавчине
кофточка
kc
pic
беби
ло
##fone
гренками
колибри
161
весеннии
платочки
драив
швеп
cafe
iso
зимнии
апельсины
применения
baseus
##bird
pz
##фир
париж
дерева
9000
473
слоеные
##ibel
ковер
cele
repla
##leeve
много
##цид
228
волг
silk
грецким
багаж
акриловая
фаворит
craft
рест
реле
##лат
##wer
печеньем
яице
reg
tex
повер
готовыи
бэби
алюминии
zenfone
напряж
cra
mus
##ple
##kт
корнев
спред
сарафан
тачки
kap
vo
вят
сод
##лак
##eline
булгур
##ячии
витамином
snow
лучш
kартоф
глинтвеин
пиш
##учка
игровые
экр
705
френч
русск
тарел
299
паук
офт
abro
вертекс
языком
моксон
чахохбили
бож
##пинг
##fit
##vet
стык
свар
214
клаб
alk
лакра
банановыи
малышеи
массажная
ситро
буфус
генератора
метеостанция
##вук
252
мятные
chocolate
дальневост
##аби
разбор
вершина
школа
полиакрил
атласная
sound
щетки
эск
##ерамид
растворитель
молодая
казань
очистки
бронз
940
ni
##иант
##енская
гриля
##исорб
воде
##itive
медная
математ
кубик
азу
лотос
игрушкои
980
леи
миль
кре
подкоп
##янс
суперм
noor
владимирскии
утро
нм
##vie
##олов
##оскоп
##ern
##езо
##ars
романт
санит
овсяныи
цифр
групп
schaub
шляпа
елизав
fox
kрем
lx
##оти
217
##ather
лукоил
защелка
петуния
graph
гнезда
амурскии
акашево
чувствитель
мис
шин
2070
салют
##ings
311
asd
крепл
чистыи
clip
xq
кю
либ
##локс
##bat
039
украшен
пятнов
хаки
благояр
обработка
boh
нот
##цо
карты
барна
задняя
одноразовая
трехсос
белизна
ib
ry
дк
153
компливит
##андия
вынос
фрекен
026
034
офсет
##одержатель
thermal
диаметр
pilot
lh
py
жг
шум
##band
##оник
fair
ежик
годен
##pool
голландские
глобус
##anco
##енью
подмос
##ical
нарзан
конфитюр
087
pres
бесцвет
аппетитная
воронка
цельноз
номер
ааа
ultimate
tx
uh
хб
##эи
продук
##ильз
пироженое
оцин
pring
naturel
республ
jacobs
ров
##орр
джои
балти
alca
елочная
патчи
##ensa
офиса
ветке
снятия
поздравля
нижегородскии
##компонентныи
fg
тель
##одер
1001
женско
туалета
оригинальные
откр
daew
бульмени
згу
ультразвук
басс
243
223
кабеля
nest
pepe
бархатные
затирка
интим
бланк
термоус
шлепанцы
but
fal
ид
рих
##эс
183
##ющеи
beige
самокл
воздухоочист
эссе
рифленые
замороз
расстегаи
sleeve
рель
##овит
ого
меллер
сдобные
лоперамид
крючки
ширина
каркас
саилентблок
изумруд
адреналин
##com
стра
фрук
помощ
блюда
кокосом
гребешок
орхидея
830
nd
тц
##обог
рожки
упаковщ
##овице
timber
navy
мамба
gourmet
760
##ве
стельки
##укон
241
вишн
запис
сгущенное
essence
отруби
щенков
глюкозои
ксилен
елизавета
республика
яд
##люк
##cu
##огольныи
смен
##агро
глух
комплекте
лампочка
aux
mdr
essent
кузн
ежедневные
зубочистки
велосипед
rade
squ
well
дим
нут
пе
##итамин
##образ
##ольская
##ilm
цветн
##ime
переднего
аиран
перекл
крендель
пузыри
маргарита
моксонидин
rj
нет
эдель
##oe
##flex
##остеи
##tech
микр
##ыча
лакомства
weiss
kotan
баскет
печати
camelion
birds
zn
банд
невскии
корс
make
розы
дрот
##zzu
##ридерм
daewoo
фу
##вост
229
батончики
милана
брусничныи
полусап
diam
плинтуса
rain
solo
станок
вольтарен
челябин
pringles
fn
lf
part
баст
чап
##гурт
##анья
штрих
##иле
8000
книг
фаршированные
пикантная
rgb
пустырника
princess
скоросш
lol
pim
##фин
пластика
047
шампань
венеция
елочное
бутылочка
тыквы
леденц
прикорм
прессшаиба
творчества
ганнов
вич
кег
##як
316
начис
7985
пикантныи
speed
стака
белла
1664
##икатор
водост
экск
ванильная
блондин
каплями
summer
фламинго
буб
леика
чт
##tan
##пиво
##атом
##аша
белом
перев
делюкс
клубничным
бланш
канцеляр
слоновая
pow
ub
##икар
##eli
рублеи
пены
нижнии
элитныи
omsa
radeon
бб
ламб
##алок
стальная
##адор
##аиф
##rite
##ническии
mobil
длинныи
грушеи
##leece
hammer
арабика
pod
куст
сыробог
кальяна
эмульс
ростбиф
горчич
kraft
брускетта
yoga
cla
fleece
фм
##ach
##ома
сладк
plushe
докторские
держателем
palette
cotton
визит
ginzzu
ima
plu
zip
##ail
грен
##ическим
stick
парогенератор
insu
077
фианит
латун
десертная
игристое
апельсина
cri
sob
дюр
рев
##дс
##вест
##шв
препар
степл
серп
##imals
припр
терра
установ
броилеров
nail
##lated
монастырскии
наклеек
новотерская
hor
бург
павл
##отен
##ушек
полуп
##невые
стрип
шпиком
персон
гарм
гала
greenfield
счастье
молдова
толщина
высокогорныи
щербет
напряжения
енот
##офон
каприз
191
стеклов
электроды
копченостями
природы
маффины
подставкои
gembird
seagate
whirlpool
ри
##еск
акб
##упа
333
топаз
mark
click
коррект
дольки
четырех
ловенбрау
mazari
кениг
кант
мост
сава
##брус
##лка
##xc
унаги
сверх
carbon
harry
rexona
антиперс
абсол
нагрева
ил
хабар
##lite
##illi
##ковым
##ерма
калина
фирм
simpson
клапаном
сцепления
фломастеры
insulated
kv
qumo
шат
##опат
блист
##ison
232
любимое
##энерг
туалетное
унитаз
бездрожжевои
liberty
dy
дс
##арат
##онит
перел
парк
натах
квисти
##peria
антив
каштан
##рамма
травянои
подсолнечника
органик
интерь
ттк
сыробогатов
##огрев
белогорье
кореиская
мгс
##епки
187
салата
платин
нова
данных
магнитная
суппоз
надп
ritter
имунеле
подмосков
hss
rus
бик
виль
личи
##уаль
##аверин
чехия
фарфор
чесночная
теки
умыв
севен
брусок
трехлетнии
прописи
казах
action
мельница
деликатесная
toyota
твердыи
лозартан
лош
нутр
##net
##онныи
##отто
##опт
037
selection
магнитола
здрав
985
##ещение
спаиси
табачные
kf
live
york
бц
вих
парт
##fre
##онорм
##окер
##андр
эксп
флукон
ласточка
стабилизатора
мужчин
сноу
гипсокартон
флуконазол
xperia
##gl
прц
страз
485
neff
##angle
lada
prestig
880
brig
lar
lor
нф
##линг
##арская
##оид
курник
##иным
кубики
##obi
уткои
полусух
щенячии
педик
чебупели
шалфеи
uk
##ift
703
куриного
альпи
##ager
абрикосом
географ
обрез
карпач
лодочка
kонфеты
711
bic
vx
фф
белор
бри
индиискии
сладкие
антик
снек
пшеничные
##ibo
кокосовыи
##ребок
уборки
торцевои
упаk
степлера
baker
oe
лета
игровое
шарлот
подсол
постныи
иваси
император
музыкальныи
проволока
подкопч
диф
шу
##тари
##итал
крошка
##rop
##ely
complim
прихв
фигурная
охлажденная
хвс
компресс
kру
ll
коралл
219
мух
##ишки
288
палмол
фигурныи
dirol
тормозная
пружин
центроб
libre
##адж
##ожение
##sson
джек
ноут
##оксикам
стаканов
камень
евр
славяновская
глубок
бокалов
дисплеи
рафинад
маикопское
стручковая
поверх
prestigio
лок
мила
сито
##ири
скетч
##ющих
ппо
кружево
палмолив
eve
##гл
##есскии
линз
bee
7000
иркут
avent
николь
ангел
путешеств
ng
аля
асп
декс
ек
швед
##рит
##оферон
краба
анд
##еевскии
рожства
соба
unic
диаб
влажн
##итории
обслуж
fashi
тосол
##uri
##идон
универсальные
##ервы
адыг
томск
лозап
сыворотке
черкизово
total
cit
бс
бублик
мокко
стелла
бриджи
хлебозавод
##ett
сокосод
start
алое
099
линоле
tele
валюта
имбирные
текстур
успех
oreo
bronze
ставрополь
профитроли
абакан
timberk
линолеум
ik
lion
прогр
стор
##блочныи
ромаш
forza
сорб
bbq
праздничныи
santa
содержание
друзья
абсолют
compliment
boo
ci
кеты
1220
вкусн
##ident
385
арматура
полусф
плитки
янтарное
##ustik
четыре
орешками
гольфы
pasab
практика
староминскии
ux
нн
##bra
##онс
##ense
женска
серб
рулевои
4100
регион
hyd
oly
деликатесныи
граммидин
moulinex
изабелла
центробежная
mint
ua
икс
ювел
##иклав
корк
##ышко
платок
фаршированныи
славянскии
тубе
оформ
пилинг
prim
кедровая
лобз
лепестковыи
украшении
рик
хмель
##si
##tem
блу
зака
splat
061
брауни
modern
контрол
тыквои
астрах
аютинскии
ball
беи
фло
##иго
слов
0005
thom
threa
цыпл
шввп
urb
светодиод
реал
volare
черномор
junior
аян
вели
##вои
##опор
##лено
##ровскии
stor
медовые
раск
ароматная
snick
tws
роутер
декоративные
конфетти
амоксиклав
подсвечник
лаборатор
zibel
гим
##цина
##юс
##гал
стяжка
полуф
орал
173
ореховая
эльбрус
jacket
счастлив
дозатором
zibelino
pill
pock
ya
мач
хонд
##ельник
фруктовые
##лея
фаршем
force
простыня
вермишелью
##ranie
шрус
##itech
038
##take
blend
##izu
витамины
шишкин
control
хемофарм
thinkpad
##pods
sobranie
pvc
деда
мэ
##бат
меркур
##ergy
vitesse
межблочныи
амоксициллин
кишечнораст
pix
соп
##ровыи
гридж
наж
322
суспензия
##изации
биглюк
прохвост
hilf
крушовице
кенигсберг
обыч
управ
цветки
##след
edge
металлическии
двухсло
полиамид
завтраку
мартини
текила
xp
404
кошка
видеока
таил
ковш
веселая
шампиньонами
тыквенныи
тампоны
ram
усс
##етон
##емид
##orn
##imar
вишневая
exv
крабовое
##liss
сверд
шестигранная
pants
##сkии
белокоч
snickers
242
авида
запаха
dek
топпинг
##ronics
meizu
ирр
##вала
сырокопч
frut
богуч
##остоикая
погремушка
thermaltake
fairy
полусапоги
lw
бачка
жук
тба
выб
фруктово
карамельныи
трехкомпонентныи
разъемная
будни
иваново
удаления
комнатная
политэк
рулька
boss
аска
кш
чед
##ерен
прикл
отж
мороза
хлебокомбинат
игры
shop
082
орехи
мыльные
бактериц
пятновыв
меркурии
hilfiger
толь
чиа
##омед
503
##ильная
поляна
451
##ingo
волжанка
молочно
заднеи
гвоздика
фунчоза
halls
rel
##юшки
##фат
##орк
##атыи
3500
камер
косточки
губерн
взбит
функ
verbat
браслета
итальянски
цукат
##астеризованное
janome
натахтари
##центр
##ниk
конкор
##lab
золотое
пряныи
092
крупн
снеговик
мраморныи
постельного
nar
wb
мирам
пота
##рои
##соны
##алов
##ляи
##еком
##истые
медовое
мелк
чесноч
узел
миллер
распорныи
цитрусовыи
бабушкин
заполнено
kартофель
verbatim
сю
фетр
карав
колоб
##уды
суповои
##уляр
издание
вентиля
akustik
злато
kb
tz
vd
##атели
##аде
1150
детства
авс
ножеи
однор
шашлыка
всеи
переднеи
олвеис
крестьянскии
рижское
ny
sign
ем
лт
шред
##ающие
корюшка
перх
мороша
1900
##ково
мужска
аванг
##ume
парков
омыв
новогодние
злаками
##derm
guerra
гребень
angry
alkaline
гава
##обул
снуп
##ассу
selec
renew
казахстан
712
moc
дик
лп
санг
##бон
##wi
##kov
##илип
##ont
кара
карм
ассам
полез
##унья
cha
deppa
биос
contin
corso
специ
extreme
чуваш
тульская
ртп
тихо
cook
surp
vm
днеи
рм
теп
##rum
##gar
##олюкс
##res
андр
круас
малины
осет
меди
натяж
керамическая
масляная
калининград
velvet
хризант
кав
##мор
##офи
246
лаванд
рамен
копченои
джинсовая
фасадныи
сулуг
lay
иж
икр
хоб
409
##orous
сырные
576
shar
бонус
татхимфарм
optima
богатыр
шамса
тромбо
цельнозерн
olymp
cкидка
панда
уют
хх
##ельскии
##амед
капрон
морск
029
cherry
russ
##ardi
ollin
алюминиевая
pulsar
pepsi
наль
фуж
##кир
##etti
микро
##ited
стрела
##лини
ореховое
ath
бусы
вагин
vici
технолог
изготовление
##мотив
офталь
diamond
ток
тесс
##uv
сменная
##ese
алси
добрыня
карамели
kотлета
kat
wok
сода
##ja
брат
иголь
##oto
балетки
071
513
кальция
владхлеб
праздник
modis
рисунок
стародворье
автомобильныи
ризотто
эскалоп
полусфера
dom
кеш
клави
ванили
протез
грунтовка
ворот
##азолин
ленинградское
logo
колокольчик
lov
vital
уфа
фокач
##иент
321
медика
медиум
081
камуф
беск
соед
##киднои
##rong
ростагро
казач
европеискии
эпилятор
комбаин
single
рихтер
мирамистин
##елс
##атадин
##ума
198
шарм
пирожные
shin
shine
2015
галеты
школьныи
сказочныи
королевская
праздничная
удаление
сублим
сухофруктов
##комплект
афанасии
деф
созд
тот
##кина
##гр
##ому
##агат
224
ins
##новение
фрутмотив
стружка
металлик
струиное
воздушное
баранинои
мартин
путассу
ультратон
суппозитории
cv
дб
##uss
##ind
жидкая
восточныи
финики
гидрог
декоративныи
гинек
гоме
pad
vk
ye
цип
##пион
кремлев
картофеля
##невои
##ущии
ремит
сухариками
альтер
термоп
gran
krut
visage
ложкои
continent
aur
pie
ul
атя
виф
##ьем
##craft
##ген
вкусно
spark
нарезанныи
салфет
мелоксикам
коньячныи
milan
резиновые
подвески
забав
sensitive
премьер
##спирт
киноа
алфавит
производство
siberica
бим
кашка
##евские
пох
##ray
паров
глит
сладком
aroma
берн
радость
mega
рэд
ленивые
антиперспир
bell
##кот
##cube
##фляи
##лаин
смор
смекта
##aste
##cha
##ria
##окан
befree
провода
омол
marks
мерло
молоток
косметики
коммун
сабо
страниц
коркунов
сулугуни
effe
gopro
way
тэ
точка
##aq
##ud
226
ink
строганов
палтус
чернограф
борная
295
ench
имбирем
paris
увлажнение
тракт
nsw
фотобар
patriot
сып
##топрил
##ван
##завод
##ером
гряд
трек
231
decor
посад
витат
село
егип
вставка
ганноверские
бомб
граб
любовь
тау
традиция
судака
природная
болгарскии
высвоб
дня
лекс
танд
яш
##ельница
шаровая
рубленая
машинки
канистра
266
кошки
спортивная
sonorous
умные
донат
ракушка
инъекции
фотобарабан
hold
jvc
mart
sak
вель
мем
раш
##gu
##уми
анв
кошач
bear
персиком
хлопка
кулеб
мезим
cob
тн
##порт
##лях
творога
сочинскии
lind
liquid
скоросшиватель
авангард
surprise
cel
кажд
лан
тизин
##ацин
##улид
236
капсуль
##oop
верофарм
жевательные
товары
шоу
яичная
##cam
##анием
308
детского
семьи
2105
носа
драи
##озащ
canin
охлажденное
ибп
короткии
клемм
самоклеящ
##иеся
darina
хирург
ban
жр
мня
##евск
слои
водорос
плас
газель
фруктами
##ажер
тонкие
бабочки
береза
высота
товаров
воронц
##актерин
предметная
innam
davidoff
kapous
прикормка
vers
vero
wn
луна
пиг
##ански
##анное
##илы
перца
801
##ips
##науф
046
078
творожно
витэкс
большие
круглые
киновскии
завтрака
монтажныи
concept
антиперспирант
витатека
##люз
##виш
##овъ
##ович
##ало
##onde
отеч
сырным
флем
tess
##tage
trend
medium
нераз
kарандаш
standart
предмета
вытяжки
hv
kонт
диза
##изма
обрат
экст
##ющим
short
arct
кальк
таежныи
##опром
ярмар
типов
снежинка
баварскии
интерн
ринонорм
кондитерская
woodcube
fab
кэт
ож
фак
##пк
##ерва
##изон
спон
стрел
строг
липа
освежающии
гладкие
экзо
студень
фуксия
dali
kола
wol
тоб
арарат
мороженное
ковис
донскои
кетанов
##кант
##ifilm
пьезо
шредер
jb
ple
дал
##mper
пива
волга
сметанныи
step
ягненка
lcd
тетрац
vict
приборов
свадьбы
карпаччо
биглюконат
gq
xf
аk
бил
##еллер
##аная
306
##ильт
полес
банк
строи
зубнои
лазанья
##tella
баранки
ecola
корректор
таиланд
bet
pel
ряз
##tle
##нака
##ицид
073
пластиковые
тонк
летняя
топор
топты
xxs
cast
воздушные
polar
##носики
разделен
коржик
цефтри
обновление
fdess
экрана
божья
прогресс
iron
winter
какт
##олив
##окле
##амель
##tea
марц
317
кукурузои
северныи
соединение
фольг
auto
гибкии
перепелин
гарниром
##иколд
троксер
vogue
клавиатура
заика
хрус
эби
##dator
##uk
курган
салатовыи
жаренныи
поводок
perfor
бонусов
родину
симфон
эссен
вегет
вобла
госуд
naturella
пятновывод
гаваиская
вь
иран
сова
##пка
##py
прож
подогрев
твикс
##ision
##окат
052
снеки
кистеи
горячего
влажныи
clever
сковород
глюкоза
ленинградскии
fujifilm
начислено
librederm
pier
рек
щав
##пл
##цел
##елье
##идина
весен
моря
морские
супраст
алт
картофельная
318
вареное
wind
упаковочная
комплексныи
волшебныи
лоратадин
nuobi
сульфа
бодр
мжк
##локсацин
nc
вг
##mic
площ
бром
рубленыи
энап
сетевая
скан
бежевая
полукопч
ленинградская
лиофил
цефтриаксон
gard
кнауф
фаин
фаил
цикл
##ude
крис
##опас
##няшка
336
паровые
проклад
мелоч
сеткои
875
королева
энергетик
рычага
trust
ярославль
супрастин
сульфацил
xd
zal
кес
мук
мих
##oz
##ше
##хз
##орь
##орег
##расс
##евр
##евого
скош
русски
062
зубных
шпагат
411
запеченное
##экспорт
фиолетовая
##оснаб
южныи
абразивныи
анестезия
bob
курносики
весовое
сырнои
апер
##антадин
палантин
старая
999
лаима
##абрикат
##ностеи
привода
широкии
пергамент
троксерутин
sys
za
##исад
##скол
мукал
наборе
суповая
styl
2600
копилка
##ющаяся
##истратор
мультипекар
глубокая
kal
жв
хеми
##рац
пивовар
горныи
варено
верхняя
фермерская
колесо
кружев
манжет
образныи
пустырник
семенами
кешью
effect
825
гон
##опарк
##истка
каптоприл
##блю
dew
гипсовая
tuf
тартар
аппликация
богатырь
чесно
караван
мнямс
дизаина
мукалтин
##ороп
фасол
predator
341
формы
алюминиевыи
creative
715
kг
wimar
##дия
166
##умус
##style
244
##4010
варочная
називин
цифров
триум
salt
рассасывания
formula
осьмин
лил
##иновая
##eral
193
641
пшено
silve
подсвет
передняя
росм
cooler
пекарня
многоф
kribl
##view
тихооке
нуар
ть
##отел
подвор
##sso
желоба
alt
средств
536
венская
##ведение
пластмас
terra
цеилонскии
египет
калькулятор
ck
kвас
##cle
##инф
##еллои
##алекс
##ополь
печать
massi
072
стакане
elf
##держка
гибрид
строительные
юниор
питательныи
шсг
half
теб
фея
##оис
167
микстон
золотые
##ессер
##ангин
bever
прима
кондит
клубничная
эрл
##ylon
benq
ячмен
оттен
хлоргексидина
юнона
антитела
lieb
vir
фал
##flash
##mint
##эф
##арг
1010
##inity
яблоч
сгон
персики
##манн
форме
редька
supers
светодиодныи
привод
буфет
тетрациклин
топтыжка
триумф
cis
if
xa
иорк
рб
шань
этаж
стел
251
брын
женски
901
петуш
докум
кокосовая
земляничное
бронхо
вологжанка
фонарик
драники
обслуживание
воронцовские
лесн
шан
щип
##цовка
##яв
##алеи
грецкии
пре
##офт
молни
##уста
развет
435
face
квадр
промыв
островная
группа
чабрецом
анвимакс
##накаш
симфония
foc
вещ
дих
оле
##несс
##uc
##инс
##илла
плом
##игар
##унти
strong
бутсы
луковые
растороп
сливочн
повар
сгущенным
липецк
допп
гидр
konig
индивид
заи
##се
##кисл
пористыи
##ilt
##igri
матнакаш
антигр
орехов
568
садовая
exch
сухарях
beats
оливк
microsd
хлопушка
кукурузныи
браво
вдох
стаут
сыровя
potter
enchant
##чка
##евер
перья
##elkov
##rist
самобр
мелкая
лукоморье
вискоз
veselkov
платинум
ept
pv
хад
колада
186
обруч
баллон
неос
мац
заколка
задн
первак
грузинскии
открыв
torn
дивныи
наклеиками
вкладыши
полиэтилен
бассеин
pilligri
pilligrimi
ass
take
##иеи
##емая
поле
джут
pcs
кварт
тара
594
ежики
пальчик
зарядка
полоса
dial
забава
развес
бусина
тельняшка
глиттер
890
шав
##енных
крош
крах
муз
защиты
413
летние
##югер
##risk
buro
волшебная
ндм
цыплята
herb
распылитель
##funken
математика
zar
zera
##лаб
##оса
##stro
##able
припущ
губная
красногорск
ангара
тормоза
звездочка
футорка
акриловыи
агротек
пластмассовая
тисн
пилснер
telefunken
oz
бьян
мз
нева
##ьера
##нис
плова
масленка
вых
##isan
227
новор
nex
083
болонь
дрож
закладка
спирит
татспирт
маринованная
family
дротаверин
pom
саг
##vit
##акор
##ольн
обжим
джаз
stad
3200
барко
6005
начин
итал
эльф
горшочке
tpu
медицинская
непролив
кулебяка
nl
зель
факс
##au
##овид
##ипан
тря
сокров
сливка
adam
залесскии
haus
воздуховод
мусуль
swift
слабосол
##ящаяся
княж
балаково
альпииская
tornado
вис
рави
##rice
##тек
##онтаж
##аком
кроп
##нике
темная
опол
голубика
духи
царство
переходнои
vivo
забор
бриллиантовыи
автомобиля
miele
равност
pun
##авки
акридерм
prod
угорь
421
слаис
березка
бальз
маринов
слоиная
бирю
хамов
коктель
тумба
хуторок
портативныи
полуфабрикат
enchantimals
тоф
##нут
артек
индикатор
##own
contex
фиксики
clearview
оттенок
пуховик
кимчи
заклепка
подкладкои
подъязыч
впитыва
sakura
ood
можж
##fo
стаил
клим
##учии
осеннии
огран
апельсином
свечеи
amp
кухонного
сердца
насадки
ребро
бордюр
лдсп
лукаш
диагностика
бифидумб
nestle
потаинои
holder
niss
tip
диска
улы
че
кроха
артуа
##ppi
кисти
дроб
драфт
чаиное
никел
сиденье
viva
немецкии
зеркальныи
ежедн
ideacentre
пинцет
настоящии
зернистая
alcot
pimki
эмульсия
фужер
офтальм
621
loun
##етная
треид
196
стреич
новое
colour
акустическая
герои
степлер
улун
##resso
алтаиская
skyline
чеддер
kur
##елле
##озн
##офер
2190
##ature
красоты
детскои
##esh
алка
монстр
##ento
жидкие
шлиц
витаминами
царское
карбюр
gauss
ягненком
пластмассовыи
егорьев
хризантема
ке
сэ
##cy
##окус
##lax
перчик
7500
вкл
альянс
кальсоны
сушеные
пилсен
биточек
vertex
зернах
прямоугольная
дизаинерскии
##herr
karcher
уплотнительное
окраш
время
ideal
liebherr
молниеи
cj
vn
##рим
##ивки
весов
алеш
##ogg
ножки
fors
длинноз
кроликом
славянская
морепродуктов
osram
пемолюкс
гедеон
леж
##лик
##орин
белого
##изан
##olog
амелия
азиат
абрикосовыи
пикантные
cosmet
виниловые
заточен
president
hq
lua
net
гут
##уры
конн
микрос
внут
054
ree
огн
новокаин
сахарница
веревка
плавания
атм
география
evis
кнопке
алексеев
cott
приморье
tropic
##фарма
стекловолок
gk
nob
кло
##гская
##етт
##икулы
колен
пивов
248
ref
##ологическое
вертл
баисад
красавчик
кузнец
ростагроэкспорт
exchange
ud
рино
резинки
веник
легин
steba
пеленки
вишневои
дольче
эдельвеис
богучарские
##rk
##оволь
пепельныи
сканд
ананасовыи
крымское
лечение
flat
хортекс
гипо
многофунк
rox
чок
##вилл
##еk
##ped
##iro
##кав
обух
партер
651
витако
венское
сочень
клубничное
вафельная
оптическии
гигиены
рабочая
перхоти
бифидумбактерин
bab
vw
##ную
##одеи
307
258
сирень
шланга
увлажнитель
steel
trio
шефа
давления
sheba
бразилия
область
слабоалкогольныи
нажд
dialog
811
lap
tar
гх
рд
рх
родные
##осепт
blade
принад
alph
неитр
мелкии
смесителя
сетке
бочковое
кетонал
шашлычок
imper
kiabi
хабаровск
контроллер
подсветкои
cav
гз
февр
##витель
##обене
капри
571
котлетки
592
крупные
милк
твисто
александров
mayer
kenwood
стоевъ
воздухоочиститель
fant
даи
тесь
##уал
##itz
колбаска
ремкомплект
leather
anton
копчено
espr
отрубнои
ринорус
полукруг
revolution
инсул
водоотведение
bright
pocket
нальчик
дихлоф
хадыж
мусульман
пилсенер
dia
нив
##иллин
##исть
кори
##андра
энц
консоль
ванилью
кубанская
нитрил
кристал
тунца
myster
point
фисташковыи
crucial
потрош
##fresh
спонж
pur
zb
##org
клю
606
окном
091
597
азитромицин
драк
здрава
##цево
щеток
охотник
футляре
##гексин
ортопед
пресервы
wild
прессшаибои
technica
бромгексин
nw
гев
лавка
мок
нек
пая
реика
##пол
##одное
##очк
##orf
панели
093
##illo
арханг
итальянская
protein
беременности
бьянко
улыб
дихлофос
914
fhd
nin
ped
вичи
ека
секс
##иллы
262
лапки
мягкои
втул
sok
цифры
восход
зимние
extensa
gcr
мраморнои
kaiser
рычал
липучке
канди
перманентныи
ez
jd
lea
фе
лют
##охим
матье
две
шпак
оправа
amer
эксцентр
аквад
гигиенические
стеклянныи
присос
draper
увеличенная
hyperx
clat
ten
бинок
мдж
чар
##ию
##дра
##шлаг
##овазин
грос
морм
088
521
гарри
повыш
ключеи
mars
brilli
миндальное
saf
##ista
трениров
солнцезащит
завиток
антигрипп
можжев
clatronic
fen
zd
глен
цп
крик
##ушитель
1525
249
минус
##ательная
фруктовои
##оксид
верде
минерале
абх
инфреш
мебельная
элементов
вологодское
danone
gross
##нолист
настоящ
вермут
лекарств
веер
##жение
##jum
##еды
##ешком
кукол
верош
десер
атолл
качества
боярыш
утрен
норд
орешек
бренди
электроэнерг
полироль
подворье
татспиртпром
непроливаика
хамовники
lounge
sou
пус
пих
сk
свобода
2001
отл
картош
амми
семеика
защитные
восток
fly
twin
челн
фирменная
бенгаль
шаньга
шаверма
легинсы
ола
юр
##рель
##дение
##ball
##олы
##оте
трещ
кабан
настенная
тарал
##ардин
венок
приманка
622
ржаная
qual
финлян
высокие
малосольные
суппорта
##илипен
olympus
огранич
cz
ces
clt
лик
мицел
##елак
##атки
кром
сливнои
##ington
творожнои
калия
мелких
компактная
пенопласт
елочных
паприк
шестигранныи
lbp
шотландскии
##геит
заморозка
##галтер
stadler
forsite
luazon
##сон
1060
##ият
##aro
подокон
##stic
##iki
blan
##ibob
школьная
соединительныи
чистящии
поддон
канализации
горбушеи
тысяч
комбаина
barbie
биоматери
сиц
##нам
##алт
капр
##ason
056
маас
fast
berry
заварики
оранжевая
prima
дача
чемпион
блох
peak
гидрогел
##бс
##zel
беленыи
##аго
отжим
порции
сухарь
купания
ножка
мышонок
boch
леденец
янтарь
kitchen
телячьи
oasis
##оизоляция
цифровая
сорбет
sokol
yam
кеик
##елю
##афор
##ppo
sparta
##препар
067
натураль
поплав
лидскии
##элло
полукомбин
медицинскии
версия
утеплитель
steril
есть
essential
ирригатор
mystery
hart
wave
##ni
##оро
##орал
506
407
##une
светоф
питом
бумаг
зубн
тушен
омез
ананасы
передачи
лаваше
интеракт
каскад
онлаит
купеческии
динозав
экзотика
лифтинг
гармония
аляска
полесье
коннектор
ln
гаваи
##дения
##ушке
компон
капп
spar
2800
квт
калач
купон
таурин
раменскии
нижфарм
сапфир
кролика
очищающии
косметичка
муравь
блока
ароматизированныи
предохранитель
alcatel
ras
бмк
гиль
хек
##yang
свино
##уда
троика
панангин
541
мелки
тушенка
актуаль
серебристая
десертныи
баварское
тату
тормозные
японскии
work
gemlux
профессиональная
kлуб
цукатами
renewal
kp
kak
фаб
##yi
##еит
##ute
##ere
карас
184
обсып
##oli
237
сахарнои
опята
линекс
end
грильяж
colors
кнопки
мебель
черноголовки
бельгия
кактус
mom
сент
##аркет
##алис
штаны
1005
полут
сигариллы
натуральное
валент
запечен
спорта
славница
стерео
традиционные
evolution
резинке
лидокаин
дуршлаг
filtero
areon
петушок
щипцы
kисть
sis
пд
##ren
##италь
салициловая
соки
702
##ухин
mad
057
имб
витая
кнорр
гречкои
тубус
портер
berg
фанера
topper
syoss
колпач
##уретан
эксклюз
бикини
прихватка
гроспирон
кад
пав
##рь
##ентная
обла
##itsu
##егин
котов
петру
##энд
яблока
ers
оболочке
##zzo
баунти
мидокал
резаные
стоики
инерц
семечками
вертлюг
маасдам
мидокалм
899
farm
кип
сорм
хс
##кола
048
зубов
завяз
овес
ремня
фитинг
диод
халзан
полотенец
солнечная
##изация
built
наше
осветленныи
тироксин
views
отжима
lv
##min
пошт
samyang
066
старорус
насеком
свеклои
царски
снежинки
ваилд
биты
гибиск
lumme
саидинг
##ызг
гриппа
аппарат
терапев
чувашии
принадл
topperr
790
bay
cube
tan
zc
ву
рент
##bow
##oni
изра
194
розе
банкет
##еевские
marvel
легкое
artisan
юбилеиныи
кристо
полнокле
осветл
музыкальная
прогул
armor
плечо
знаток
полноклеевое
bingo
jc
тяж
финская
наиз
смк
##ентов
деталеи
264
##urn
maxim
елис
гладкии
дверь
подключения
альтернат
цифрового
superslim
iek
хен
##ековая
##офаж
##arl
331
вареные
кормушка
утенок
рожкового
colla
универсальное
кожаныи
##aki
##ape
##life
грузия
эрг
toys
хвостовик
cм
voy
фс
##кости
##ios
##орная
##елли
##етныи
3070
##игор
курск
сувор
справ
##itter
упаковки
семеиные
рубленые
глют
жареное
мелис
термок
земл
бочкари
электронныи
студенч
спаис
orient
крокодил
пингвин
шарлотка
фасолевыи
шсгд
ои
##енкуль
10000
##alth
печенья
иглы
антр
анчо
фритюр
391
асорт
предопл
кровать
мерен
casa
дневнои
быстрого
вишневым
атяшево
бинокль
data
була
гессер
таль
##top
##мед
##ести
3110
2107
томатов
ипа
icon
васил
atlant
oodji
sav
zoo
хумус
##ерина
##икул
##ильки
##оканал
раскр
бабкины
гранит
славица
ушные
##ологическии
распаш
##lery
мексидол
тарталетки
екатер
финляндия
предоплата
вои
сур
##rint
колг
медово
##ido
стареи
миррол
scf
мангал
лавровыи
десертные
дезинф
спиртовои
дорожныи
tytan
оплата
лемонг
пупс
мультизла
конфитюром
obl
tet
лас
тоска
##ware
##инер
##icy
##ленное
352
барьер
паровая
gbuf
##iko
lem
мелоу
538
термометр
халвои
ирбит
первая
boom
прямого
охлажденные
глюкофаж
бамбука
глянцевыи
arctic
ave
vf
##мон
##ual
##опер
0006
2103
жаренные
патч
приемник
schw
бирка
акустическии
копченым
развивающая
римантадин
днк
дорожная
кемер
грация
фестал
мисо
альтернатива
kал
khc
лиф
тек
##fl
гриф
приб
##урс
смх
##офа
##icare
обн
распред
метров
тональныи
груднои
нежное
тетрадеи
просток
ресивер
клюквы
gmb
меновазин
deepcool
волгоград
романтика
пятновыводитель
вдохновение
самобранка
тофу
рентген
jl
буш
##ольские
##iton
пластины
розетки
284
сахарныи
гранола
спирали
sdc
роста
смородины
работа
манная
единица
kапуста
постельное
сербия
антигриппин
израиль
det
oro
pam
rn
мит
оскол
пх
теша
шер
1002
белыми
##ouch
##att
234
помп
варв
smo
натуральные
помидоров
delta
airpods
moist
любительские
strike
aurora
новоросс
gip
hea
rol
мов
юар
смяг
174
детки
##ифона
stat
cyan
скр
рыбное
технич
makel
кавказскии
бандаж
леденцовая
zalman
равиоли
ost
roll
tam
tide
адв
##ляющии
##исто
##епа
полум
спинка
хлебобул
##ковское
278
самолет
бани
квар
грибочки
skitt
стерильныи
##lexpert
комбилипен
гребне
увлажняющая
бытовои
протеиновыи
ригли
отопителя
парфюмерная
сустав
коньки
мирролла
fav
gul
rbl
аив
##оров
хлебец
алкид
283
антипр
##ингер
617
декора
термоб
арахисовая
злак
крестовина
шестиграннои
восстанавливающии
ярмарка
вегетари
доппель
стареишина
flu
pfi
ромб
теф
##цово
##елевыи
508
##olux
трип
902
272
##ачная
сквор
##ятие
363
силовои
фара
провин
запеченые
enter
санокс
абрикосы
автоматическии
wester
секции
саратов
activ
jeans
вкусняшка
retro
пипетка
тесьма
nit
our
пуч
##рес
##тм
##шим
##гам
##учини
##igo
##pers
##сих
пластиковои
фаринг
спринг
643
3900
marsh
##ыватель
комбинир
геор
sae
оболонь
конвертик
элитная
славянские
голландскии
следки
цукини
ювелирное
лобзика
krutoff
focus
skittles
pra
бф
беикер
гели
маин
326
пастои
контекс
сахарные
##чатая
сметаны
велком
##ible
кунгур
двоин
пищев
глюконат
вакуумныи
ванилином
рузком
вальсакор
великии
паприкои
799
fle
px
rac
друг
мерс
##текс
##day
##зои
##jo
##уре
стим
##озрач
подрам
##lac
маляка
##аренныи
517
растении
линзы
ford
картонная
никот
gsl
camp
disc
соток
тихор
узбекская
holli
егорь
приключения
фарингосепт
ola
wx
лонд
фол
##осп
кромка
309
корега
джон
ванила
2300
каляка
тонкая
##phones
принцес
олива
valio
simple
manf
добавка
любительскии
диво
тапки
многораз
utp
сельдереи
сластена
хлебопечка
строгановски
светофильтр
ресс
##иот
##цов
##арск
перепл
кременкуль
рулоне
матовое
заквас
adult
легенд
fack
eleg
инструментов
антисептик
никольск
вьет
чеснока
анчоус
hen
аевит
фонт
шх
##наб
##уклин
слоб
##amer
2115
оре
чехлы
probook
платформ
gallery
372
telec
exe
карандашеи
говяжье
сорта
milky
проводнои
##итреид
снегур
straw
полимерб
обжар
genergy
белорусскии
ceresit
баблминт
socks
alpha
провинция
ow
rv
биль
бобс
тян
##no
сырки
##adow
матрас
калиб
ледофф
мангале
##ardin
кунцево
сбора
##летто
capp
кабачковая
twix
лидское
потолков
ekf
ибуклин
allin
##сkая
сфера
челябинск
гибискус
821
bri
ewh
gg
mam
sne
себ
тера
наки
##отки
стих
стикер
553
##ctor
розув
##прод
маклов
тонус
beur
gear
взрыв
селфи
коллектора
афр
заливке
динозавр
наимен
brilliant
лк
лун
сиз
##бург
##олван
##енские
##онаб
##алюгель
крюгер
печеная
спб
серо
триг
##ибо
детр
##устик
палочек
611
добродея
раструб
рыбки
teka
лазолван
коричн
canv
монтажнои
автомобильная
заливное
вирус
фосфалюгель
##rotto
бесцветныи
dewal
февраля
manfrotto
boun
les
ton
##лор
##омир
стев
452
1700
##андер
движ
доброе
профнаст
095
десят
сканер
пломбы
узоры
юбилеиная
рождествен
маринадом
озеро
базиликом
нимесулид
signature
марципан
шпаклевка
zh
кх
это
##via
##илие
стикс
сторон
изг
женщин
803
805
263
asko
профил
645
535
велю
фигурки
турб
flow
массандра
from
old
огурцами
клапаннои
полипропиленовыи
улитки
резьбовая
омывателя
gol
has
hero
пина
рь
##lar
##ii
##оре
##онас
##ицвет
столеш
unit
навага
штучки
кузов
гидро
сяке
funky
отбеливатель
материалы
chupa
бакар
##герц
доппельгерц
fact
los
корт
##set
##мест
##gel
грав
##аков
##идел
##ania
##инаки
полухин
4500
552
351
4200
##оксол
465
##onder
закладки
маринованныи
коричнев
carlo
мыши
олень
##делитель
balance
березовыи
синтезатор
бахилы
рижскии
птичье
##ahce
парковку
осетинскии
розувастатин
макловица
kre
траф
##ucc
##ары
##арски
##оем
сваля
259
трес
##учно
274
розов
соленья
pci
электров
rek
одного
большое
гречишныи
matt
apc
текстовы
аппетитныи
ariel
вафельное
вихрь
омолаж
тауфон
telecom
hun
вращ
кз
фонд
##овски
##еип
##инав
табака
##olk
посола
маионезныи
caram
пятен
горчицеи
охлаждения
seni
pasabahce
urban
икрои
812
кио
лаиф
фп
чан
шеики
##tis
2032
белым
салатик
324
матча
small
свежев
простои
ушм
комплимент
наложение
васаби
регулиру
вологодскии
мешочек
чулки
балтииская
бакарди
nort
аспир
гас
дсп
щука
##ete
##уэр
##леб
##еди
##omat
##ольцо
напольная
сырное
малеф
maped
##торг
винтаж
семь
рулона
##ova
reach
chic
сгущеное
жареным
украинская
сибирь
flor
шурпа
гелевыи
доипак
gzk
helix
мастика
минутка
поздравляем
трактор
пигмент
хадыженское
жень
харт
чр
##кус
проект
##rock
минск
##eta
резинкои
глазки
гречневыи
ромовая
винтовои
fifa
train
пантин
merc
султан
надувнои
малаховская
верошпирон
nz
tank
бз
дельф
зу
нуга
щедр
##зи
##gy
##онта
прал
##осм
безопас
рубин
энкор
ремек
sec
заглушки
шипуч
бюстгалтер
профильная
пакетик
helios
spring
вставкои
кислотои
кобальт
mocoll
lindt
лиофилиз
разветвитель
полимербыт
ama
jm
tal
окант
##дол
##nel
крот
##ковскии
электроп
имита
стрека
2012
glitter
unibob
399
армян
нефильт
bud
wars
вместе
sharp
скандинав
fellow
jen
kуб
tree
xc
даг
культ
пун
##евскои
mira
##mate
повр
медведя
ткани
schwe
роск
французская
мультифрут
##биофарм
##уцил
ботиль
petit
перфора
графитовыи
цукаты
борисовскии
remington
лексредства
rekam
yak
лс
шо
##sn
##fs
##ерея
##осет
сунд
перем
крап
джип
флора
аллея
соли
613
619
##аиная
ножовка
просты
flip
mfp
охотничья
##хоа
амброксол
хвоя
маникюрныи
фиксации
champion
технологии
##micro
многофункцион
тараллини
профнастил
fq
fz
fou
kн
lager
tund
фэ
шоk
##нп
##power
##gus
##орд
##икорт
водоканал
рублев
522
prec
линии
голубые
бабушки
642
книж
гвс
аккумуляторная
нести
деревяннои
баклажанами
аппликатор
скрепке
lime
apollo
раковины
ростбифом
storm
bru
kлеи
дно
##зим
##елька
##ечнои
609
аркт
серыш
лакомкин
снежана
avi
длинная
рукавом
быстрос
ситно
владимирская
ksm
бкк
botan
вичуга
поштучно
булав
tundra
нетка
пинк
##ьего
##еские
##адия
капит
перен
наруч
носков
441
иогуртовыи
посуда
баклажанов
замороженные
vivacase
хаски
инжектор
##лярная
разделочная
cablexpert
##ancy
двусторонняя
hobbs
russell
ramb
##кими
штамп
насы
##ицца
колодок
полив
##умка
салатныи
##икие
картофан
рублевскии
палочками
таракан
биок
поттер
ковр
задви
простуды
никомед
sensys
ricci
vision
плодовое
гмб
малефис
fellowes
задвижка
ie
kра
romb
##агон
серт
масел
##imo
0007
черногор
supermicro
кукурузная
двоиное
чебура
нижняя
экзотик
pgi
every
посыпка
санитарныи
записная
трафар
малефисента
eq
iw
pers
qc
villa
кэ
##анские
##одов
##акса
0025
напильник
##cho
##ульч
шариk
микрол
глаза
телевизионныи
ягодная
запеченое
тушеные
крупнолист
коделак
одност
пенз
сумочка
sdxc
украина
зажигалки
##hire
шурупом
календула
норма
таискии
тяга
фокачча
nissan
буг
гав
клад
псих
сат
##нир
##azz
##kо
##алат
стеф
ставр
##ичное
колгеит
пивн
спин
фрути
пашот
лего
крыс
молотая
##огрева
цельное
соте
пеленка
телячья
ядрица
свободныи
электроэнергия
лемонграсс
велюровои
ботильоны
насыщ
жва
каг
##пат
##mel
##phone
##pack
##uff
##wich
##ется
прана
##осин
##обои
0011
1660
хлеба
марис
мясницкии
дерб
розж
стеком
амстер
конфитреид
неир
532
ярд
ламинат
тамань
поддона
logan
приставки
stihl
wheels
свежевыж
sur
тант
хэ
##fold
##bk
##агель
##ованием
глазированное
remaster
319
387
342
местная
кубанские
дошк
поплин
усилен
дымыч
нестер
потолочная
отривин
двереи
складная
амбробене
пуговица
ххl
поплавок
hartmann
remastered
marta
аюта
бх
тильз
##ац
##искои
704
акос
indo
shure
двс
##яжки
овальная
445
bradex
атаг
техника
venge
tuc
вакуумного
непаст
бризоль
муравеиник
заклепки
атлантическая
повторныи
интерьерная
гриджио
видеокамера
чернографитныи
717
818
bj
mun
жал
уно
флаж
##лем
##kel
##аск
табс
брызг
тро
миньон
скребок
алеика
бараш
глина
##еева
коса
сочни
фортуна
внутренняя
чешки
заварным
перцев
чебокс
мочи
квадратная
дорожка
chups
изобилие
котлетои
невидим
friend
rainbow
лондон
ara
ата
пз
чор
##hol
##gs
наит
##имостью
орб
##ilia
чаика
сигарета
батер
глазунья
столичные
садовыи
эликс
##oda
папорот
sapp
ветли
массажныи
бисер
лагуна
дождик
корсар
капсульного
815
гс
кц
##ey
##фуз
##оек
приж
преби
##инация
##tes
##ouis
брет
медисорб
котенок
паронит
565
586
книги
пленке
легкая
atm
хомуты
##olly
механическии
двернои
grip
подставке
хозяиственное
чечевица
брауншв
убф
амстердам
вико
тл
##атика
грод
клоп
559
флот
##ышек
рубл
416
катет
season
загара
schwa
modal
transp
сенситив
петровская
коллагеном
сакура
##juw
oursson
lk
wago
эх
##ev
##ащ
##hof
##сти
##офит
напитоk
выдержка
лимак
люк
бараб
бежиц
этик
европа
меня
jetair
ингаля
неилоновыи
richard
gjf
деиствия
уральскии
queen
барнаул
аскания
тихоокеанская
нин
##ыль
##ружка
кариес
##обакт
констр
##афельница
##ифер
364
настенные
карамел
любимои
paint
коробок
милд
липецкая
канализ
отрыв
jetflash
гурм
pantene
глобуса
сульфат
оплетка
kotanyi
коммунарка
сыпуч
superslims
электровафельница
735
jew
##bite
2010
плес
##arz
##atone
выдвиж
старика
стиральнои
снежная
kramer
замороженная
labor
ацетат
klebe
успока
тренажер
феихоа
трехсосенское
нагреваемые
pleas
тьмы
гзмс
##uccino
sapphire
rond
дивная
ляг
мерная
шр
ял
##юга
##100
##bro
##илов
излив
2150
##умага
##ованных
марк
кальмары
олд
интег
veiro
venus
vanilla
вибро
художеств
мультипекаря
равностороннии
лукашинские
антрек
bree
rena
via
varta
wine
их
мц
пика
##очного
##ампа
двум
фасов
адмир
нижн
##отрим
инфуз
закусочныи
andro
цепи
tnl
ладога
гексал
стразами
каппучино
gur
vитамин
zate
ях
##ius
##gin
##ерап
##омет
##ази
##агара
##ott
таблеток
058
297
сгущеным
руккола
умная
максиколд
crew
нержавеющеи
доступа
голландия
гепат
papia
розмарином
эксклюзив
strawberry
precision
vengeance
бачок
габ
дд
фам
##хоз
##омания
прор
карач
колд
##ors
##rost
сливок
артез
углях
##iver
замка
посидел
носовые
alien
фотон
select
пшенично
стандартныи
durex
турист
первые
полиуретан
органов
econ
eclip
solid
sym
ранит
фетт
гудвилл
ларец
однотонная
стаканы
принадлеж
распашонка
cуп
hood
чур
##ful
254
домашних
##ачев
медицин
защел
топпер
станция
колпачок
советские
насоса
окрошечныи
крахмал
скворцово
beurer
ранитидин
718
awei
##олина
##анова
##есц
##илер
##ante
##ильные
2006
печки
сырн
серые
806
цветное
323
кабели
blast
##oshi
426
chr
нового
ягуар
##актив
lev
##wear
##ычица
631
шкурка
владычица
геогр
belkin
вилла
лобстер
##денных
румяна
прошут
kонтеинер
рязань
двумя
js
zyx
гц
рекс
саж
что
##олж
1120
кора
сох
водоснаб
баранка
##anda
сахаре
творожн
среда
мкл
автограф
##онтакт
дарлетто
миланская
скидки
twist
ячеек
crocs
австриискии
мажитель
обуховская
эликсир
вход
нэ
хф
чеп
##зол
##кас
##овкои
##окси
##илок
сменные
белых
бланка
##amo
##уза
wht
жаренная
сердечко
##оцел
meg
восковые
никола
квадрок
сенаде
гидрок
rhs
высокии
фурнитура
дзерж
garden
sokolov
##препараты
gulli
вьетнам
exegate
kорм
mall
row
ноб
##mark
507
плоды
судж
##енто
водная
инб
##ахер
5500
раздвиж
балкон
вариант
добрые
наружная
эмуль
питьев
sdr
сиропе
городская
quad
ital
стеклу
пекин
logitech
kiber
александр
##малгон
ниагара
##атуры
великобрит
лтд
паровоз
имитация
zatecky
zyxel
mell
oh
zte
гем
##верт
##mas
##олоб
##аре
##итет
##отт
##ссе
##озин
комод
сузд
281
0008
phant
##ствие
377
серебра
##ронат
санра
круглоз
corn
аквафор
daino
насадок
попуга
аисберри
palit
дорог
прохлада
досок
транспортир
gatefold
переключатель
845
age
call
kаб
дут
зп
мч
ципр
##яшка
##зас
гровер
##еское
пере
##stream
##ilo
##егаз
марокко
алло
запах
phaser
arch
автош
096
делаи
активатор
умк
##дрекс
туалетныи
моивы
этюд
скрепка
beerka
эквадор
корневого
pyram
зельц
тряпка
western
тараканов
сертиф
тантум
квадрокоп
dies
бист
ги
##дис
комку
##агистин
полиров
горка
мари
джус
выруб
фрэш
кантри
smd
526
292
hdt
ежк
свекольныи
респир
диснеи
бетагистин
sensation
сити
триммера
##кард
двухсторонняя
амортизатора
шлифовальныи
innamore
антрекот
fk
sort
xru
ваин
шеик
##car
##xx
##ерк
##iny
спарт
инк
горнол
##ефф
флеиц
апт
солено
ручеек
вафля
панно
##aya
посещение
автов
blanc
говяжьеи
офф
заварочныи
delight
ангарск
охлажда
рафа
инерционная
кудр
vostro
921
кель
камп
кинг
фаз
фед
##ister
штопор
##ипал
пери
##ахо
зеландия
фили
бумаги
049
молочным
533
##ородныи
таина
##ервис
675
бювет
polo
onyx
airline
экранов
повидло
htc
низк
краснояр
bubblemint
благовещ
композит
lotte
багажника
глухарь
виферон
похуд
dance
lillo
цен
##бтм
##ивань
блек
##isy
str
параф
глазиров
макк
канин
внутри
084
ореховои
укбтм
мелкие
##ief
##аллерг
сервер
clar
аквам
регулятор
catrice
карбонат
wilson
флуор
помощь
грядка
флемоксин
спартак
gun
kаль
sant
дег
хоч
##фал
##овец
##оих
кред
светящ
relax
столовых
видеонаб
купино
загот
отварное
тепличные
бумажная
футер
ctr
axe
кассеты
шерсти
londa
перинева
рельеф
колобок
каждыи
подоконник
эмульгель
bang
rab
yx
zw
лэ
ланд
руж
септ
##ts
##tl
##сом
##kron
салатов
солом
овощеч
##ничка
витязь
воины
галерея
покуп
ананаса
##kai
языка
акват
тепличныи
секр
бородино
материала
прохлад
nanotek
уборка
эстель
аллохол
видеонаблю
phone
бг
бев
##care
##bok
##аника
1030
брез
##ili
биохим
348
646
silwer
карамельнои
изюминка
premier
алког
феник
juicy
санто
просек
королевские
orion
честное
жигулевское
снегурочка
суздаль
kит
nm
sle
вака
зок
чита
##филь
##ирус
черны
##озная
##остон
655
томатом
столик
smok
pass
дрен
##akers
техники
навигатор
счет
general
сытое
седек
бразиль
тяги
язычок
аннинское
кремлевская
стеллаж
глютена
marshall
подрамнике
принцессы
батерфляи
eclipse
dome
gum
tod
лель
ночник
рефт
##пико
##ютор
##овегин
##илище
##ani
кремлевскии
маковыи
необ
paper
сельскии
махровое
heart
atx
литои
квашенои
динам
бантик
вертикаль
hobby
швеицария
##одерил
вильям
великобритания
мн
фтор
##пт
##ечи
колдрекс
##оши
##ille
джеи
239
##idia
тарань
448
опоры
элег
395
холодного
lenor
##аркам
увлажн
прополис
##ясопром
греипфру
трансм
датскии
дизаинов
абразив
подмосковныи
rombica
bamb
чук
##cer
##bb
клея
артр
##ленные
##ries
парка
рисовые
метра
545
альмет
uno
актовегин
эфир
0101
выключ
moon
паспорт
кератин
charge
узбекскии
сухофрукты
мексиканская
инсект
фиксатором
texet
##bander
бирюза
алкалин
мормышка
кагоцел
респиратор
bik
жку
шоп
шекс
##ral
##бокс
##рун
##озол
порш
маслян
горд
дженс
##ительного
332
апте
колбасное
shoul
653
крепежная
524
протерт
питьевое
atta
внутреннеи
##оиныи
кальмарами
бульоне
льда
ltd
аксессуаров
вырезки
бронзовыи
makeup
аспаркам
красногорсклекс
болоньезе
ersal
платформа
попугаев
699
ai
tangle
зонд
ноль
фем
хил
##олли
##аннои
##ниг
1008
##ута
корень
домино
закат
плаз
276
stab
классичес
рассып
261
чипс
##ранс
маски
лампы
фигурок
миндальныи
беталок
строитель
будь
кавказа
доски
аидахо
фляжка
спазмалгон
свердловская
fut
mits
rl
дуп
нидер
собр
##пит
##kии
##рова
271
ручк
умныи
akg
stream
trium
набив
лисич
строительная
основание
медальон
депиля
тонизирующии
шведскии
collagen
георги
орбита
фаст
шки
##лу
##пин
##енер
прият
##офур
водянои
##olo
анж
story
ipa
зелени
пшеница
чистин
деко
увл
халап
несол
ириска
зеркаль
овсяночка
монастырская
rivacase
купажированныи
powder
kvr
партнер
пивоварня
атака
брауншвеи
klebebander
адмирал
mine
mlt
yl
бн
иода
##иас
##нели
##ете
##алет
капуч
капкеик
457
трое
гора
зеленого
света
грибным
укор
авток
296
ледя
пироги
ярл
саунд
маленькое
hsm
тверь
охотничии
поддерж
диспле
двустороннии
заменитель
среднегаз
фиксация
жгучии
вельвет
status
aviora
renault
fancy
гном
кэм
##уэт
морщин
орг
газиров
197
ручkа
269
антист
076
plant
##ронт
фрутт
##tell
витаминов
телефонов
специями
москв
керамическии
more
vivien
palmol
giul
квадратныи
бритва
отбеливание
троса
балыковая
олимпия
густои
направляющая
профилактическии
перинд
карбюратора
карась
transpar
jewel
wg
yan
миг
хо
##nic
##фуд
##аква
1180
курс
обоев
полт
##ецкие
##oney
361
любви
таивань
косая
пени
ameli
восторг
luxcase
нагетсы
miner
мексика
наши
диспенс
##именте
dragon
фляга
аквалор
биопроб
bohem
калибр
тильзитер
периндоприл
veg
вим
зод
мум
нт
оруж
тофф
##light
##зин
##hel
штифт
1070
2060
колот
конферен
панама
und
дикая
827
##apter
сыв
cars
тканевои
готовые
длинным
##хвост
сантехническии
контурн
instax
thomas
камуфляж
полукомбинезон
дербент
саундбар
jp
млад
нам
##осер
коров
247
минская
фреза
sph
стри
луков
палоч
##iks
магад
сприн
лимонады
##ища
##gauff
atlas
липецкии
swh
быст
пилки
маленькие
части
кондитерскии
цельн
nvidia
пампушка
альпенгурт
отопление
упаковщика
weissgauff
индивиду
adamar
видеонаблюдения
713
нск
тук
##ане
стебель
крат
смерт
наполь
453
орн
домашнеи
джо
мясокомбинат
амел
брюн
cher
444
temper
баварская
здоровыи
дмитр
форелью
градусов
зверята
стерилизованных
скиф
медикамент
schwarz
palmolive
915
ael
kod
ole
rad
вью
##рост
##дем
##уров
арк
джим
разг
286
955
утки
снуд
модел
взятие
томское
постное
пулев
пакетов
шпатен
дальпико
душистыи
гофрированная
самоклеящаяся
канализационная
farbite
мурман
prestige
centrum
холсте
древесныи
клещеи
продукция
##ology
детралекс
ble
bow
hit
hello
wet
ен
цех
##uer
##оно
##ечные
креон
##азеп
полно
551
сокол
винни
##ионное
christ
shot
518
магния
маионезе
games
const
##экран
греип
богород
uniel
patch
дааз
солодовыи
лечебно
гомеопат
альметте
farbitex
gut
pj
sla
гипп
ды
##rand
##цу
##fix
##етика
##осан
##ексы
крикет
1350
357
головки
пирожных
aloe
элита
725
537
кусочек
635
carls
задания
park
oreal
слимс
foot
кизляр
фармацев
суперслим
##ropen
бактерицидныи
тяжин
friends
прижим
rush
xv
xz
гг
флаг
##рп
##жик
##урная
черного
орск
детокс
spl
семян
пародонт
775
6400
прозрачное
бурят
499
brut
fiber
жирн
дмит
империя
лезвие
finn
ахм
нанотек
дамские
воблер
фотобумага
ударница
тканная
pixma
аист
гант
габар
ишим
пира
съ
хеф
##вис
##чика
2540
##ret
похлеб
339
пэтф
баня
рыц
темнои
темпер
##ущая
новорож
однои
фаско
кисс
дюимов
amore
яркая
винтовая
pearl
злаковыи
quick
роднои
нефильтрованныи
венгрия
нерка
таига
восстановленныи
пекинская
оцинков
ядро
эльбрусинка
уссур
мелисса
alienware
rou
башки
гш
чит
##цер
##zard
стира
карел
##иче
поцел
##itude
джерм
акбар
развал
семеиная
0009
ремонта
кормления
2014
587
зеркал
micha
greenwich
росп
клубничнои
##джин
volume
вакцина
kарамель
алмазныи
пасх
скрепки
schauma
teezer
выходнои
оформление
zarina
повреж
tempered
carlsberg
alu
fury
koss
usp
бэл
хел
##рез
##сис
##nam
##ubl
сма
##ежные
трофи
дети
крема
пряная
рисовыи
424
##abra
envy
гвард
славда
ананасами
плинтусу
ситечко
##цетам
тамани
самоклеющаяся
centropen
гексорал
андипал
коленвала
гидрогелевые
rowenta
овощечистка
transparent
cake
jelly
ronde
##ess
##микорт
##гаика
##евич
##оби
помпа
654
овер
элеф
чистоты
see
acuv
gamma
ski
особо
оригинальных
фанаг
prior
mfc
пульмикорт
puff
glade
канализационныи
limited
глушитель
радужныи
##guard
зодак
похлебка
бюгель
вез
веста
##bis
##boy
##001
нака
408
##ском
##lete
клотрим
аро
##унок
акор
##iso
желто
2109
булл
094
562
582
##марин
lub
елку
минеральныи
мышки
динскои
jazz
приморскии
маникюра
fuzetea
розмарин
сангрия
##asteel
konigin
vivienne
ахмад
клотримазол
jh
ked
lamb
зр
саз
шаб
##паза
##овник
1015
смит
2004
подслед
707
##aset
сухие
люблю
##ливания
шпин
свежести
специал
борща
учим
выпад
цитрусовых
omen
империал
радиаторная
вечернее
флюор
angel
тарталетка
чувствительнои
ультразвуковое
hydra
хондр
lovely
ципролет
fder
ion
jo
tower
дент
псл
рои
фета
фоли
##бек
##mb
##kar
##олеты
##аток
##отныи
##амота
##ипол
брожения
751
##аферон
анаком
джиг
ско
баттер
рубленныи
##ымскии
shish
564
дрели
##enda
подвод
633
букв
литовскии
морозов
simba
секц
moda
kурица
программа
adida
feron
австрия
моцареллои
вискоза
гастал
защищенным
##aqua
cellu
лиофилизат
fdern
пект
##щик
##урия
белковым
##alt
алиса
spice
##ular
asrock
ремешком
среднеи
tebo
гречневые
фиеста
шариковыи
струиныи
grace
левушка
аджисепт
цеил
metall
материалов
##connect
дождевик
практик
предохранители
отверстие
спеленок
антибактериальные
перелив
ципроф
обратныи
свежевыжатыи
bus
bis
kос
over
зил
##мека
##онин
##inda
капюш
брошь
орел
##ath
красным
вкусы
##окам
волнист
тортилья
514
свежими
593
десен
сельдью
чесночные
раме
аквариум
кетчупом
морозова
gusto
энергетич
оптим
intense
filter
foam
гольд
эспум
слипоны
self
гиалуроновои
sabo
улыбка
фонтан
cappuccino
716
зори
трам
ура
##тика
##fr
##огуб
крим
1110
упор
спальныи
банана
##леер
##инги
магнии
натурино
##ардо
glide
##энзим
зерна
sli
агат
агрос
adren
grill
неглаз
полотенц
##хлитель
даикон
mws
боярскии
boyard
занят
kronasteel
трафарет
троинои
sorti
диспенсер
ate
dys
kока
qd
vari
беш
цетр
1210
##olla
##упак
народныи
##ивающ
469
играем
brave
##letta
арбидол
врез
мебели
sbs
украшения
волшебные
jura
keen
двухстороннии
компрессион
благовония
энцикл
милдронат
дренаж
ципрофлоксацин
oce
round
бом
дата
шри
эуф
##lick
##port
##омер
##атная
гров
##ему
##огруз
##обал
клипс
перовое
##amin
зач
минь
##eti
##oste
парик
палыча
контин
одно
автол
##дверныи
coco
мультицвет
хреб
круглое
663
electronics
селек
mbs
gigaset
satin
аксессуары
заливнои
звуковая
кулинар
пермь
latte
грабли
никотиновая
накипи
текстовыделитель
санраиз
нольпаза
орнамент
acuvue
hill
iris
yh
усен
хра
##кость
##лип
##night
##dini
##ати
##огнут
608
полиция
maest
клав
барабан
матиас
шпаж
оплет
наслаж
шлем
влажная
school
целая
nikas
кузова
миди
мраморная
vira
рабочие
версаль
капсулои
бескост
##юторская
спринцовка
эспумизан
dyson
gio
hh
соты
##аред
крка
##лении
чехле
354
скрыт
##чиком
инди
огород
новом
столовые
photo
828
##blk
папке
connect
армированная
mill
подвесное
тенни
тпк
saturn
рафинированное
хкм
асти
кутикулы
ингалипт
тебя
олеина
катетер
ниндз
греипфрута
zy
бт
ич
1011
##уто
##епром
##естан
802
сухогруз
монопод
каталка
2011
дрель
паул
сервиров
спирте
имбирное
перцовая
здоровая
auth
проблем
сенча
природ
рецептов
гигиеническая
молокосод
frap
циркуль
бергамотом
dekor
cosmetics
кременкульское
symph
горнолыж
mik
xg
геиз
дунк
щепа
##бол
##нар
##арки
##елыи
сварка
соку
филеиная
соск
фасованныи
396
дикии
нежн
luc
живоп
ростовская
сусло
deli
api
органза
##ождение
коктебель
латексная
dreamies
черемух
токи
давы
вольф
мегап
прищеп
опры
пневм
unicorn
екатерин
хочу
ih
look
зая
прек
##очков
##екции
##имуцил
##исание
обог
полянка
карточки
круч
марки
яблочная
##ishi
окское
столб
варежка
куклы
eliz
0015
##ardon
мальт
##верныи
длинные
tool
прикур
вспен
фланец
view
android
сытоедов
полтав
916
rot
чк
##инов
1020
##arc
2003
поликар
лимонным
банок
роллов
собака
432
торцев
особое
школь
975
двухдверныи
snail
guard
темпалгин
пожарныи
двухсторон
поздрав
oklick
кедровых
backpack
рибаи
чаппи
viewsonic
прошутто
domest
##офурил
элефант
god
oppo
аю
гд
жюль
лон
пуля
##арик
нац
приш
##отроп
страч
чернич
##еньо
0020
0021
мяско
##таки
made
277
вкусное
парад
палец
ветчины
свежем
сливочнои
места
бесплат
кинза
кфх
отрез
введение
impress
объема
пугнп
ультрапастеризованное
сальса
абразивная
стоим
когда
latitude
аммиак
##гамма
бильяр
комкующиися
##евазин
салон
капотен
##oline
хлебные
алтая
1201
платки
516
461
health
назальн
safe
ceylon
звездные
пикша
моющее
утепленныи
cheese
finish
krona
клеевои
мильгамма
square
plug
gurdini
красногорсклексредства
785
835
bam
lom
uf
аифона
буз
жк
икор
пад
рюм
##tr
##моне
##олор
##икорм
##асемид
весн
водныи
куринныи
appet
послед
видеорег
персика
silent
провед
коньячная
торасемид
прозрачные
исток
школьные
квадро
королек
фьюж
раскрась
сандали
цельным
сотового
сантехники
johnson
фестив
menthol
редуктор
игольчатыи
создания
раструбом
diesel
цетрин
domestos
ale
ita
tub
zx
хна
##ao
##етник
грим
##ons
корочке
перес
краем
порционныи
горелка
минис
554
356
сокосодерж
##ised
филиал
помещ
deco
снега
##akt
faison
ультрамарин
бюдж
регистра
фирма
трикотажная
calzi
ricco
лобио
рогалики
nuts
nokki
ferr
рвк
london
термоусад
упаковщик
relouis
полукопченая
насекомых
heavy
бистро
should
пирацетам
cellular
bul
tiger
зен
луж
сина
цап
чука
##link
##hr
##guru
1003
курк
##изо
804
хлебушек
акри
##стрем
канап
вареныи
апельсиновое
пломбои
швов
швар
восст
caseguru
matti
венгер
пуэр
неро
elega
молокосодержащии
titanium
скит
гипоаллерг
перфорациеи
полноэкран
714
jam
yd
кула
эч
##ыков
##аплеер
3080
коронки
зах
джи
выраст
фруате
скв
##ерман
сладким
мягков
##ноте
741
техно
кардио
barilla
casio
мощ
фьюзти
клапанов
##ителю
optip
гбц
фасадная
лабир
стартовыи
окрашен
трехсло
нерафин
троксевазин
стоматолога
термокружка
cris
miv
гата
пск
щек
##ловскии
##вия
##чино
##ves
##ерд
##овочная
##огран
##офор
сока
903
808
домашн
##ede
кабош
282
баночка
384
lee
таежная
##shop
пенне
урс
просторы
prf
озби
woman
pezzo
кунжутка
спиртнои
тормозных
таиф
##anced
##авирин
нанес
комнаты
эластичныи
##vision
целебная
дюрекс
иркутск
строибат
прокладок
stylus
десерта
bounty
mitsub
миньоны
усенко
817
gor
rap
жан
##yama
##апч
коронка
полицеи
морошка
2111
сырном
##sten
мужско
виногр
##анте
желатин
##ader
366
палатка
холест
натурал
маиская
acc
евров
декором
6200
винограда
приемнои
литра
maggi
целлоф
bug
венгерская
гауда
srs
обжорка
karl
бензин
iqos
окрошки
камчатскии
белореч
##овичок
pampers
fy
mou
push
дист
мист
нип
пуф
рив
##hg
##иленд
стиле
картера
##иди
2114
марл
мужски
##аренная
брюсс
стрем
##irs
mio
неап
берет
мультики
##ционные
яркие
lights
##ению
черносл
krass
ariete
intens
аджарски
дорадо
короткие
иодом
демонтаж
oregon
oxion
express
педикюр
коралловыи
primary
циклоферон
amaz
стрекаловская
энциклопед
bom
vag
тюм
##бан
##баш
##елис
##окум
##епит
краситель
дженью
синикон
семушка
dead
мелод
тушенная
заря
проуш
фермерские
плетеная
biber
мытая
minimi
твердая
gfw
боул
мюнхен
протезов
длиннозерныи
fantasy
рессоры
jenny
посиделкино
yxon
халапеньо
фолиевая
dot
вмк
куш
лн
фэн
плеи
##eng
##еньем
##rel
народные
винп
осен
##ированнои
банные
внутрив
варим
414
средние
##роница
дрим
blood
marc
665
активия
передние
злака
целыи
чаик
замороженныи
очищенные
очищающая
##ерновои
paterra
дмз
ингавирин
альпииские
алмагель
chev
##epro
вишневое
поддоном
советскии
luminarc
фунчоз
татарстан
орхидеи
вместимостью
сафари
пирамидки
тепло
скошенныи
простокв
сохран
полноэкранное
cow
dq
fj
жу
щуп
##pr
##nd
##урь
сти
черт
##озел
белеб
клец
клевер
подгот
##афил
акул
279
##шкины
творожным
563
0012
атмос
полосои
трико
шнековая
ракушки
пчел
legion
ершик
фирмакс
надписи
медиаплеер
victoria
roxy
сыпучих
laborator
гиппократ
shoulders
синаф
okb
sap
tak
your
кексы
литер
ое
эва
##sco
##mt
##анское
черным
куриных
котята
темноте
сахал
##ander
замша
утиная
tec
823
всэ
626
ресницы
освежающая
##конфи
покрытии
пфк
cata
быстрыи
греипфрутовыи
установки
топленого
одинарныи
##еллоу
тамбов
гранулированныи
путешествие
americ
егорьевская
north
##фузор
гидрокорт
квадрокоптер
маккофе
priority
ocean
гроверная
jabra
факт
цил
##дор
##дом
##поч
##aa
##dd
1014
комсом
##никовыи
3600
сладость
nemol
519
418
овальныи
sci
##izen
зала
erg
форели
mono
bahl
пыль
рукавицы
накладнои
дельта
раптор
канцелярскии
депиляции
duty
nan
rid
vor
аш
алаз
гум
змз
ках
кьян
лф
лиг
тз
##оть
##скими
##ечное
##идом
спеш
трои
напитков
358
скуль
##ированных
барон
желоб
страны
пита
силиконовои
крепыш
colum
##anto
gez
армир
brow
ангстрем
пробки
bormi
знании
улуч
ложек
sintec
двусторон
добавлением
нфмз
бриошь
virgin
кориандр
чебурашка
today
лисичками
стрижка
akai
dam
jt
kne
ler
зе
лада
яки
##des
##ерезка
##оника
приз
свои
обвод
брик
солгар
##ffa
пельмен
arman
291
элем
teat
грановская
кожзам
мириталь
брусн
англи
бархатцы
кореискии
длинн
определения
швабры
nutr
runner
advanced
кесад
водоснабжение
дункель
свежеморож
полицеискии
gezatone
ay
hum
tac
моты
щуки
##bot
##ето
прел
1004
##агг
хлебн
джунг
mass
шарнир
натали
панна
428
##ингв
098
##quik
сац
донская
кинто
guess
vcom
фирменные
наконеч
трюфели
irbis
контроль
batik
прорезыватель
pelic
fleur
карачинская
cir
five
frisk
kреп
pir
жит
##ально
##обныи
##истир
табурет
слоем
арс
муч
##егда
##asys
разнос
##omex
362
верона
paw
фотока
сочное
руккол
mem
сороч
контргаика
окраина
рубленная
швеицарскии
суток
обезжириватель
гимнаст
пребиот
жюльен
бюджет
optiplex
энциклопедия
дженьюин
qn
zp
бью
##frost
##wind
##фс
##одом
##идик
##lament
stm
солид
##osp
свежим
свежее
##раза
298
удл
косточка
чистотел
живая
ульян
ушн
swim
комбикорм
шурупы
krka
ламинация
сенсеи
ahm
alpine
пресш
##itoch
фланцем
рубленные
лемон
тиснение
караоке
castrol
брынзои
микролакс
континент
видеорегистратор
nemoloko
bim
dock
his
pq
ами
бласт
моп
эk
##енно
##анск
##одерм
##илинг
##авт
капил
1650
обоиныи
арн
спут
анви
анаферон
шариками
разб
sprite
антрац
471
линимент
рома
##onda
0016
копченое
усилитель
информ
экстрим
перловка
брянконфи
гепарин
сельдереем
пиала
realme
перепелиным
заичик
нивея
фритюрница
тальят
sneakers
стефано
friskies
lun
vox
сотка
##лыи
##очку
трост
анатом
акульч
stil
таблетка
##равл
shu
посольские
фасоли
крепость
бескар
лаветти
##list
forest
##оцит
lilac
тканеи
долма
тыквен
west
клиническии
бородинские
дачник
##ific
акварельные
максимум
kotex
кулинария
attomex
дальневосточныи
интимнои
butter
успеха
sterilised
прогулочная
нидерланд
ледяное
прекрас
таифун
антрацит
soy
мог
уж
уро
цельныи
##фаст
##zu
изы
3050
водостоикии
##sty
stv
##атория
парус
таблет
глазирован
кала
##gear
exc
мелованныи
531
квасе
ярпиво
8100
бульона
пилз
crema
звездныи
valena
##form
учета
дизель
##уцин
flama
гуава
канонфарма
ленты
мультипласт
ольмека
gerber
области
ламбер
ячменное
десяток
канапе
гидрокортизон
dent
gerry
iru
lock
wrig
вk
гун
окисл
сетч
##ьим
##орные
##ерки
##арма
2025
##огост
##ono
##идо
##идрон
изм
колумб
1920
##chua
малосол
флер
328
##ексал
светод
новог
382
иогур
шпинг
378
верев
##verter
костныи
жару
685
сердеч
бурля
песоч
brit
732
олюторская
базовая
постные
вентиль
##key
896
исследования
станки
вдали
keep
ivory
муром
мексикански
прорезин
quechua
лыск
ультратонкии
прожектор
этажерка
reebok
проектор
амелотекс
акульчев
card
fat
qe
коч
штан
гряз
##итаб
##ировки
свфс
##озв
3060
##orr
корма
##ехо
солофарм
1102
##ids
268
##ikk
595
евп
галакт
fire
нагруд
hbg
midnight
ратат
маркеров
origi
квашенная
дивидик
стародворская
регулировка
satoshi
charger
hlv
финишная
занав
письма
horiz
вгт
тысяча
жвачка
чоризо
просекко
уссуриискии
jell
дина
ушка
фокус
##галин
##зе
##оклав
бела
полисорб
##естр
456
супов
##cks
соуса
spray
рисов
маковая
питер
нектарины
катал
катушке
дрофа
392
коври
окорока
flower
dvi
graf
керамогран
конвек
журн
уплотн
ричард
трапеция
короткая
мечты
batter
ренни
ренгалин
гамбург
кассета
плотныи
##clus
bolsi
пневмат
швепс
celebra
кишечнораств
гильза
сертификат
пародонтол
кьянти
rig
tas
vik
бакт
зраза
нои
шаибои
##men
##шнои
##юня
##орскии
колье
перу
твои
минив
детям
малое
волк
распредел
рислинг
гостин
##икант
сибас
раки
##витол
495
brush
цитрон
годности
ресурс
целые
пропеллер
frame
деревянные
сенатор
пистон
благодеи
шиповника
вологодская
absolut
ржавчины
пляжная
обрезин
сублимированныи
закваске
аптека
проушина
doc
ddr
kан
nad
xo
xps
мст
рц
рз
##yn
##еина
##мас
##400
##cos
карсил
спинки
##уча
вык
волок
059
стрек
442
метр
укрыв
нега
московские
пальца
swiss
отборная
моики
##иптан
маршм
nesquik
интенсивныи
анестет
селедочка
четверт
терракот
только
voyage
tetra
круглозерныи
брауншвеигская
карелии
##почмак
uce
еда
чл
щенок
яп
##kои
##инол
штанга
##отех
сув
отлив
голова
573
винта
##ady
удоволь
венера
6300
edp
clou
верхнии
espresso
венгерскии
bianco
vega
open
profit
ренев
буженинои
фуджи
унис
fujitsu
обжаренные
коломенское
uhs
ниндзя
authent
бильярд
нидерланды
шпингалет
kук
гез
тила
ферв
циан
##жер
##lr
##ику
##емир
##огл
##един
артикул
алг
риса
368
##тоцид
антим
рыбалка
элика
косточке
листа
лососевая
micr
##амбо
0022
cleans
aug
кальмаров
696
подсолнечныи
simpl
испар
головол
кубаньмель
возв
running
профессиональныи
беременность
эспандер
льняное
солнцезащитныи
клетку
терапевта
шоkол
колотыи
##огубцы
celebrat
ao
aio
hz
pulse
ui
кения
нч
паб
##kk
##иро
##рук
кратон
##iner
##ады
коноп
ари
353
337
1101
тарелок
верб
5800
фитол
##mance
покров
clima
негазированныи
сауны
quart
молодцы
##quest
nude
заправкои
счастья
hame
бездрожжевое
фильтру
пирамидка
performance
микроскоп
мерси
джермук
lon
warm
встр
дын
нул
##rus
##аня
##оси
##ивак
створ
ард
##isana
наруто
аванта
банная
расход
луковыи
1301
доброгост
салфеток
облег
press
велес
агром
колготы
monte
мятная
masuma
овсянка
половник
бусины
объемная
общего
umc
человека
честер
##атурн
мулине
oasys
рельс
полупр
корректирующая
простынь
hgg
лео
нс
штык
колымскии
соk
пивная
перо
фругурт
##isa
##iste
327
068
074
086
натурального
477
сдел
436
консилер
##мара
##odo
закруг
сушкои
магните
lift
hyal
престариум
гусинои
градиент
waroz
муравьев
пестр
птицеф
сонет
поворотныи
управления
имбус
ирбитскии
facke
сундук
phantom
красноярск
москвичка
michael
эуфиллин
mitsubishi
фервекс
линка
почки
сатурн
##oise
##kins
##осы
стери
##осталь
хлы
инь
stone
разры
##imex
##искон
##ничок
мыла
автоп
542
437
гарниз
сыкт
dub
бельги
##оцикл
взб
perf
источников
очищения
лисички
##форд
вилки
жемчужныи
turqu
медицинские
норвеж
mazar
энтерофурил
лошад
large
тольят
мусульманские
присоске
артезиан
хфз
инбев
undiz
гарнизон
doll
ego
hik
kок
nap
ora
гита
пью
##ira
##uct
##оков
кариб
каролина
##астр
##уня
755
1801
spea
##oops
замком
##iness
альмак
лесными
кревет
forn
##одиум
кисловод
triol
хранилище
дверца
полимерныи
navitoch
раннии
chef
кмп
зоопарк
##холод
акциза
деиствие
вятскии
graphite
белокочанная
государ
пулевидныи
хондроит
918
bz
eos
гард
##ward
##brid
##ограмма
##уск
##альто
##ильо
5570
##etto
stout
самыи
пасты
глазная
столич
укладки
альгин
пылу
ледянои
ключи
636
дуба
duc
мазка
аскофен
наклон
daisy
тимаш
плетеныи
ночи
спарж
вкусняев
mayb
аидиго
ajs
указанием
выдержанное
закрытая
хаила
кюв
caramel
поцелуи
kj
kам
zinger
кто
кагор
хэп
чс
##бель
##кинскии
##ду
##nut
##анер
##остров
2005
клар
салицил
##уди
complete
имодиум
моно
deko
варенка
мягким
728
тушеное
терб
совмест
кефирныи
##ofon
диротон
bene
spect
help
ливером
северное
ложки
break
ударопр
швеппс
перепелиное
суджук
pyramida
хаилаитер
tob
uw
zj
##tron
##щика
##ерок
##альб
комар
женщ
горы
анап
359
микки
витои
креплением
снэк
крышк
валд
пенному
суматр
##agu
кулир
нефил
пятница
битум
искра
селян
обеденная
пропитка
интерлок
бампера
паиетки
##ggi
road
ликерное
морепродукты
фикси
tesler
форсаж
эгис
лысь
пражскии
матрешка
антивоз
диабетон
нитриловые
дутики
низкокал
keenetic
автолампа
опрыскиватель
суматриптан
бест
жесть
лофт
сари
тиб
эвер
##ающ
##кель
##гро
##алер
##есныи
##еколь
свист
4028
корон
сигн
меда
ручного
котик
футбольныи
nexy
618
более
удочка
344
венчик
холодная
маэ
##ixx
884
delic
bqs
value
ясная
7100
тимьян
axsn
подроз
mhz
беляши
party
четырехлетнии
мембр
апероль
schwaiger
художественная
##ерапия
silwerhof
constant
оверлок
лабиринт
кесадилья
kо
кля
мока
##лист
##сан
##вг
##fon
##ченко
##hetic
##атическии
грина
##осемид
##отип
2080
##исил
белмед
колец
1830
752
твин
куринные
флокс
кофеиная
##otic
золотистая
##анго
##еевская
294
##иха
561
молочном
2013
старатели
торп
##кую
крымские
congo
макаронами
георг
грузди
slimlux
мотив
##zzle
вязан
киевскии
##ября
бензонас
##avec
съемник
левомеколь
фуросемид
интенсивное
##screen
использованием
документов
гевискон
тилап
bss
esta
rz
yc
лич
фокс
##чения
##яков
##икт
##еко
1040
изв
курочкои
клинскии
##лики
марси
##етками
intex
баночке
запор
422
dec
722
пепт
glor
лаик
438
маал
термопласт
литров
барби
печеночные
most
пикника
жесткости
опера
развива
sunny
##ождения
искусство
gdr
printofon
кировскии
возраст
бездрож
плечики
татарски
чебупицца
шлифовальная
rubber
гинеколога
алешина
биоматериалов
рентгенография
attache
конвекциеи
реневал
945
cen
hay
sata
yo
чб
шен
щр
##pu
##мя
##gle
##ивные
черенком
колечко
##осто
капус
упк
домофон
##atra
марак
##ительные
##ефрон
лимонные
овощные
chief
коктеи
sham
371
очень
coffe
портвеин
##oku
island
киндз
шестер
остаток
##head
uniq
брук
lost
отдых
kапучино
hobbi
mentos
умывальник
салфетница
росмэн
солнцезащитные
фотокамер
now
нш
некс
##ети
стег
свиных
##озан
##епроница
поход
2440
##201
##афлекс
труд
ipf
соленое
##ump
1103
##ертон
charm
матов
##увер
калеид
347
припои
проводная
439
access
крабовыми
сумамед
севера
песочная
sports
last
кефире
планшетного
мочев
дпс
пряностями
заземл
фетакса
sjcam
kомпот
сметанои
кальцоне
cosmos
барнауль
черноморская
токофер
воилок
светящиися
stabilo
синафлан
бьюти
маалокс
aos
duru
sz
астр
ланг
ное
чев
##zone
##екция
##езин
##утка
аренда
полировка
##rap
министер
prov
скл
настен
##уги
посольская
523
bean
лососевые
кусачки
великол
adapter
эмал
задние
kitty
праимер
внешняя
понед
gzy
kонс
kороб
тыквенные
отделение
ортофен
##lasma
капсулах
финишные
gym
цирк
язычки
карнавал
скетчбук
лиловыи
пралине
пилзнер
сыктыв
oled
ross
yal
руд
такт
##ват
##gru
твил
минт
анна
287
угольныи
угощ
темпр
chick
круггетсы
alli
смеси
валика
ванильным
animal
повор
##acer
простые
первое
кабачками
бочковые
симфер
пакетиков
даурия
novos
afl
американское
audioquest
жасмином
череповец
застеж
диетическии
спазган
эксцентрик
хенкель
насыщенныи
чепчик
##обаламин
lomond
бескаркас
цианок
kраб
ov
stel
морт
##ню
##joy
##арел
гри
##аска
##опаи
сварная
##orus
клетч
блэ
##андж
558
колбасками
1401
267
варки
неил
топинг
ампула
##ологические
бонаква
вертолет
cmk
кружева
kонверт
восстановления
рыжик
headset
бытовая
просв
памперс
слипы
гиалуроновая
attiva
осьминог
слаисы
pedig
страчат
919
syl
vich
wall
гт
кеи
##tch
##есон
##omp
##инафин
корова
салонныи
фруже
mast
mach
2750
3300
алко
овощным
9500
сахалин
контеин
##fex
тонкое
##ихан
##ope
ледокол
кольцевая
пеноп
рассоле
компотик
природа
хамел
##анию
латексные
демид
релакс
gates
шумовка
avex
лягушка
аквамарин
plantronics
накаливания
капюшоном
династ
authentic
маэстро
марсианка
nic
nina
сульс
хаб
##нефт
##окор
##одуал
##еса
черк
коре
поликлин
##ленная
мясорубка
сине
сухих
развит
электрическои
mirac
##ническая
пшеницы
чистка
валента
беродуал
омскии
птицеи
диазолин
##quet
artist
parlament
eveline
бюстгальте
discre
жаккард
океана
регулиров
многоз
kотлеты
ucb
полупальто
втулки
флуоресц
прелесть
гринагро
novosvit
cad
вив
гаи
зт
мk
ушк
ца
ци
##жиг
##леп
##олип
##руса
карап
белк
комисс
##room
красив
##ексин
окно
##угалия
болез
leo
349
coll
размеров
634
подарочнои
ковров
дозат
731
poly
городок
насадкои
valfex
дисков
характер
финик
кедровыи
cns
березовскии
lyn
пампушки
унипласт
недат
magnetic
smooth
discount
вимм
хэппи
bank
og
коза
ну
чек
##вент
##гри
##аринг
##алик
##акодил
##аискии
##ичного
##лектор
нарц
сигарет
334
новые
столов
приора
облож
катрен
5915
pasta
644
волосы
трубки
фиол
эфф
литая
негазир
##icket
продак
карболит
фармас
сандоз
бисакодил
patrol
крестики
декоративное
must
legrand
battle
аксессуарами
dolmi
стрептоцид
мексиканскии
кедровица
термостатныи
пуговицы
супермаркет
адыгеи
флоупак
мелочеи
##опольское
слабосоленая
стекловолокно
зондом
наслаждение
керамогранит
облегч
egg
mov
msh
vb
vh
реф
##ряд
##сины
##виз
##еся
##ечкои
##ожен
##red
5005
##eder
stop
вкусная
желеиные
яицах
круги
витал
рожковыи
599
647
any
ключом
ротф
агаф
елочныи
##ational
бульоном
дымох
camay
софия
жесткая
северные
тетрапак
##быт
успок
белорусское
юнландия
##ораствор
направляющии
вытяжная
esthetic
тазоб
небо
чтение
занятии
винпоц
тербинафин
##avecca
##нефть
mouse
od
qm
zk
гит
жардин
##ez
##ообраз
##pi
##ace
штанг
##итам
##особ
2520
5001
трих
маск
хлебница
ангин
##char
##rish
##ированного
##ions
inverter
##равн
ремо
##ячок
плавлен
асепт
ногт
каналов
вред
slime
горохом
попс
попуг
bona
бритвы
taft
key
hmc
earl
зернистыи
vention
mirka
флизелиновои
xeon
music
кондитера
джутовыи
business
fornelli
цианокобаламин
vichy
винпоцетин
aop
bone
qvs
xh
yama
ибер
флекс
фабр
##тех
##pol
##лаиз
##облин
салатом
comet
мясок
резон
фруктомания
куклои
купальныи
мелов
азия
венски
фиалка
серверная
струж
муфт
умница
grape
weber
хрустящеи
маслянои
моеи
возр
патрубки
ильинские
sorte
bouletta
кишечнораствор
safeline
абхаз
отрывнои
трансмисс
рыцарь
elizavecca
ушками
aer
grig
ниф
шаи
шихан
##лое
##pix
##jub
гроб
кармен
##enz
##ушение
##истатин
##аверина
##ильника
##ииски
слес
слиз
бро
##унчик
##ахи
суприм
соке
##isad
##екса
самос
капустныи
панини
конте
сгд
зубатка
защитои
опал
средних
светлая
434
athl
оцинкованные
кураж
роса
французские
симвастатин
babyliss
косметическое
republ
##safe
raid
моющии
пекаря
итальянские
непастеризованное
viole
cleaner
peter
##ланта
bmw
стацион
каркаде
bolt
пружинная
pocketbook
moisture
minecraft
bib
kk
lit
алад
ревиз
сека
соном
саян
##yon
##бонат
##wht
##очищ
##ert
##onica
509
колл
комн
2002
подорож
напы
##stay
##aton
труда
амб
ark
холдинг
legg
рожке
code
464
бердс
бесш
398
гарнит
местныи
##опрофен
роман
пломбирование
лава
bros
консервированныи
akos
элитные
сантал
наполнителем
##paw
лизобакт
etam
garde
резаное
балансировка
римская
боилер
шираз
поздравляю
бастурма
императорскии
глубокого
завязками
движения
собрание
metallic
maestro
ahmad
duna
kуп
luna
vac
аиленд
зиг
сиф
##color
##kер
2050
##усики
##omo
##ежное
##ошки
##узы
акпп
безал
##idi
запр
панир
маковои
окруж
булгар
ипат
levis
сдобр
544
большевик
glow
block
bloom
диокс
агеевские
кислая
tour
onkron
очищение
бпз
режимов
вставная
retina
sheet
moly
insol
открывалка
yamam
петруха
training
розжига
штанишки
стрекоза
discreet
833
837
emp
fur
kov
пека
фелин
##рекс
##атик
накиднои
##илол
1212
5050
##утир
0030
подп
пивные
##ams
compakt
синюга
std
скин
invis
chir
канефрон
deo
слаидер
##oplast
598
343
cock
листвен
676
стирка
822
skate
##оцман
meer
бурр
922
корпуса
parmal
морозная
пнг
добор
налив
тими
гарнец
sunrise
атласн
ломтик
гуси
azure
infinity
пиона
перфорированныи
кальцием
государь
площадка
лютеин
сапфировыи
ореол
акватекс
брезент
пауланер
заяц
калеидоскоп
сонома
dunaev
913
side
киж
манч
щечки
эутир
##ser
##pik
##шеи
##еве
1018
##адр
##ala
водя
##естер
марочное
##rive
волковская
##антен
силден
калуж
опят
средиз
рыболов
верн
камня
пепер
звонок
пао
mario
##калка
фигурные
delica
corv
magenta
этикет
обеденныи
крючков
medisana
##nauf
южания
будильник
империи
аниме
тетрабор
барсик
виниловыи
пцр
doctor
дамскии
прищепка
bites
picnic
лаборатория
оттеночныи
ключик
рексона
##clusive
анестетиком
династия
силденафил
mimi
zet
довод
##ola
##mat
##олев
##atin
шоколадн
куринная
винтер
069
вареньем
стартер
ягодка
##опродукт
диа
диад
всегда
портмоне
водонепроница
передн
apacer
регидрон
нагруз
qui
вертушка
бабаевские
starwind
ауди
штучно
альпиискии
сюрпризом
таиски
room
стародворски
вечернии
железы
кавказская
термостата
hugo
широкая
таган
распылителем
клапана
антиген
фактор
автоваз
выпадения
венгерски
ротфронт
эутирокс
834
bion
mita
vib
вул
мди
##uelle
##хан
##осед
##очника
све
пле
изогнут
##eni
##lack
полюс
##ешь
джум
выв
951
пластиковое
089
5320
костров
оливками
тори
галог
##ibon
882
витаминно
0023
brost
перцовыи
беконе
освежающие
пудры
баранья
##oflex
triangle
полимерная
коротк
баикала
заземления
knorr
механизма
жираф
застежка
ffl
bestcase
strip
##туссин
трехгранныи
лоус
пихта
крупнолистовои
symphony
speaker
republic
jol
вот
лефф
нь
опред
##сол
##вон
##арные
##аркуль
##ателеи
##ези
порос
орег
1978
голяшка
резка
колбасныи
панчо
антицел
биология
##erse
539
соблаз
393
##avox
агрик
милл
задних
offic
чешского
свекольник
кулирка
двухцвет
хлороф
целлю
buy
чаиных
жирная
mane
hsu
фрикасе
##ипрел
##сkие
злат
burn
маикопская
направляющие
dunavox
нолипрел
перламутровыи
изумрудныи
мацони
алексеевское
питомцы
интерактивная
муравьиныи
легенды
несоленое
columb
удовольствие
линкас
разрыхлитель
секатор
cou
cвет
dat
doh
hj
ich
mount
non
osb
zic
zmi
зк
пила
рш
##циал
##bel
##ляющая
##амил
сунели
подъем
##ладия
сыре
905
россо
##101
##радонин
ваню
ноутбуков
##ows
lezard
colin
##роном
камнеи
534
623
661
atf
чебаркуль
льв
малышка
закусочная
моющ
деликатесные
быстрои
степанов
ливадия
черниг
аидаред
когтет
разборная
фурадонин
полусухое
компрессор
narva
мицеллярная
наручные
##choice
чебоксары
этикетка
оплетке
вырасту
micromax
стерилаиз
антивозраст
подрозетник
сыктывкар
diva
kис
krea
sct
singer
zum
zoom
диж
кеп
миф
ыи
наслед
##алье
пош
##rade
906
экон
анком
мясными
голограф
желеиныи
сосн
соснов
481
shadow
канат
начало
волосами
трубочкои
сдобн
eac
msm
арбат
кровь
cass
аэртал
psy
фински
конвертики
midi
блестящии
гладкая
привет
##осфат
zenbook
липучка
knit
вышивка
synerg
proffi
shindo
тотал
топорище
сицилия
вариантов
##азепам
подследники
полотенцес
унисекс
##мараули
коктеиля
костровок
917
cand
pon
ys
ио
мисс
оа
уокер
чин
эстер
##юж
##wat
##онос
##альня
##остр
706
пластин
авр
баралгин
##elline
##ikal
петро
стартера
9999
звери
engl
формата
premial
толстыи
мышеи
бруснич
землян
харбин
##огрел
печеночная
juice
графин
beaut
резаныи
радиаторов
##conti
ферр
обработки
kрасныи
красавица
vilen
global
помадкои
тарелки
partner
цельнозерновои
vitality
переплет
прохладная
lubby
агромясопром
count
hus
kro
osso
боска
гад
галь
нуг
рустик
шеикер
##mar
##орская
##рап
кри
##офлекс
##уши
##еха
сырник
ордер
супчик
##ефокам
1806
289
силика
##укав
варница
ash
leven
935
463
контеинеров
махагон
##sem
примры
санки
967
струб
папkа
bose
язы
0103
bts
планшета
растворим
фермерское
track
шестигранник
дрожжевая
отбелив
cosmo
акварели
капельница
aroy
motion
шишки
купеческая
слабилен
крендельки
mediapad
тигровые
vlk
страик
дикт
михаил
system
сагуны
смягча
кварц
flowers
укороч
эчпочмак
bomann
спутник
коврижка
угощение
parmalat
aga
hell
jw
jim
jagu
sos
оаз
##фель
##kая
грот
мгнов
курорт
морис
##ковка
огни
протарг
3400
ягодои
валосер
крабовых
бекона
865
мерк
cricket
mdd
fran
скобе
stefa
raw
саид
бабушкины
касса
боярская
солодовом
побед
velour
пирамида
vitamin
derma
эгилок
горизонтальныи
рибоксин
белокочаннои
промывка
чокопаи
динозавры
pleasure
похудения
шексна
guten
рукколои
хлорофилл
валосердин
jul
roc
бд
елаб
ронд
сэт
тх
терт
цо
цет
##huk
##анат
##отта
каранд
##улин
подм
города
осп
##umi
семил
золотом
начинки
джемесон
магне
346
камфор
ades
adets
маскарп
елки
загадка
миланскии
максима
ацекар
лаимон
триколор
##ирующее
пропись
784
пудрои
жидкости
ковриков
bonduelle
haribo
снеговичок
альпина
престон
пантолеты
nuc
танк
lowepro
sumdex
шахм
kamis
друзеи
уральские
биопродукт
atlan
расклад
боярышника
защелкои
дисплее
температуры
kосмос
dubliss
лысьва
chirton
levenhuk
примрыбс
jaguar
ацекардол
aorus
dal
fini
oct
pos
биж
гж
кита
оу
чмк
##ря
##кция
##луч
##creen
##юша
##enger
мга
нарк
скел
солд
вафлеи
имит
двоих
помело
варка
посев
носок
тетя
болг
слава
удач
5300
кисточка
коробочка
устрица
слоиные
сверл
885
озера
картонныи
iiyama
hybrid
пропаренныи
кетопрофен
кружечка
choice
##эмаль
dmc
молдав
ceram
truss
эластичная
королевство
ведер
логотип
мультивитамин
уссури
тбау
сковородка
суставов
фрутилад
paintboy
мокасины
средизем
оазис
719
ahd
eob
jg
еас
ныт
фуз
шаф
шьем
##пач
##ько
##чан
##200
шторм
проис
##езд
смот
клины
разно
##антел
электрог
фары
##tail
coz
дисконт
карамельное
фотоальб
berlin
бумажнои
buck
stretch
funny
optim
танцев
ламинатор
шампанского
железо
umka
эстетика
xtreme
rioba
falcon
sisi
антипригар
окантовкои
паровозик
габарит
клецками
turquoise
диоксидин
maneki
примрыбснаб
knauf
riva
var
арут
впуск
##уем
##лиг
##aic
##овица
белокач
257
##еньки
кораб
##лиш
708
мужское
розл
панелеи
огэ
neoc
deonica
419
прих
скаи
грудинкои
824
галоген
вазон
сиофор
carre
edt
активная
4900
офс
царские
##under
нагрев
vivanco
palla
софарма
ринзас
хаинекен
советское
статуэт
##мпз
lacie
многоцвет
ryzen
cristal
серпянка
географическим
laptop
картошечка
аспирин
рафаэлло
дуплекс
хефе
екатеринбург
фьюжн
lynx
фотоальбом
ринзасип
jardin
loop
дека
пышка
сним
таин
##бут
##plex
##арс
##оич
##лами
5010
0040
5002
водоп
моро
бриг
красок
синг
2230
зеленокум
0200
глория
косточкои
583
дискрит
heat
гречиш
спортлок
пенопол
толстолоб
магнитом
tram
аэратор
проводом
горьковское
wifi
кпк
праим
ags
medical
cats
шнурки
kолба
разливнои
дальхимфарм
##resse
бегемот
dorin
эдалт
socket
латунныи
lorea
диффузор
everyday
atmos
эхина
##истирол
гезлев
леффе
маскарпоне
838
dos
han
honey
иф
рокс
тус
##виж
##ьм
сте
карава
связ
##ушкои
команд
конг
##енты
слова
3001
753
904
907
красном
пират
329
самар
записи
панц
chi
##ючение
527
иогуртница
pret
blond
пломбира
luzar
fore
эфко
##anger
сибири
psp
мануф
794
искушение
охлажден
пропер
бронх
облепиховое
##istyle
masc
bwt
ксефокам
антибакт
bfw
##колбас
аторис
таллин
##иколор
elementary
сигнала
ванилла
filtron
frozen
blanca
гаваискии
kлубника
quadro
кельма
башкир
наценка
стремянка
##design
рататуи
полупрозрач
агафьи
pony
бостон
вант
маф
мерт
сима
##кини
##иус
##цкии
##ща
##kop
##оло
прит
измель
3020
клт
1450
салаты
анан
солонка
самых
волков
spot
383
##теиль
автоб
удив
кусковои
спортик
664
##ывание
погребок
злаковое
psd
dissi
гелев
хлопьями
эврика
bioaqua
##thernet
диван
tcl
goodchoice
искусственныи
отделения
пожарская
лебо
ставропольскии
##funk
хмели
бургера
banana
farmstay
cуперм
аптечка
богородскии
hyalur
токоферола
сдобри
ванюшкины
kreafunk
english
нытва
cub
vika
дикие
кован
песка
яичныи
##кен
##дал
гром
##иях
3010
##никова
морских
##удр
салатная
трэ
куринное
люди
разовыи
1202
углов
носочки
446
оправ
##feel
тоника
автод
неженка
данн
дарио
классико
сиропом
росинка
юбилеи
базовыи
селен
valia
чаем
##zzi
феназепам
уплотнит
naturals
plane
hugg
алтаиское
мбм
термобелье
тефлон
поврежденных
dekoron
mivimex
##апчичи
intensive
scient
bahls
ульяновск
испаритель
pedigree
cozistyle
статуэтка
cигар
ethernet
jones
tai
зир
лоза
##ye
##ges
##одно
1012
##улина
##lad
муп
синюг
меду
але
коты
2106
растит
растение
калитка
5200
скакалка
маус
кокоса
клюквенная
зерновая
тюкав
drink
счита
ballist
бланко
соевое
ивановская
качество
открытая
infin
nordic
пармезаном
шатен
сырокопченая
дефлектор
тандыр
буше
алкидная
bikini
луковицы
бесплатно
окрашенных
armani
штыковая
эверест
synergetic
country
измельч
scientific
hub
кил
пава
##bet
##ору
##олю
##онтр
накидка
пры
##огам
##адол
колле
6030
красного
красота
супра
##ительное
кофр
зеленои
##ffi
##omile
591
##интез
ножке
славная
##оиник
армада
freed
нитка
фольгои
фольге
распая
гелевые
нержавеющии
дорога
vesta
гнезд
grifon
libresse
перекус
перламут
махровая
pulpy
изобилия
цуккини
биотвор
специальное
хобби
gipfe
ставрид
шпината
учимся
евпатор
галактика
боилерное
kas
ауг
иошка
мика
эб
яв
##van
##nik
приц
каре
подушки
орими
джокер
мясным
народная
574
дерм
медв
пирожн
shiv
пома
варан
ореха
thu
петел
##саит
трубчатыи
таины
hem
noir
лесных
мазок
данил
изделии
севаст
липовыи
##ментин
этил
казан
календулы
кафеля
бутербродная
kрым
irit
обществ
ментолом
glossy
наволочки
рэмо
корнетто
перманг
смаилик
радужная
магнелис
тамбовскии
##окант
arab
рефтамид
chevro
птицефабрика
когтеточка
kолбаски
aou
dress
fill
pore
zing
вива
гул
проник
1016
##иризин
##ильное
пододея
соу
##rey
упр
##никс
газировка
429
levi
очков
##oph
cocon
unile
радости
агеевскии
фарширован
клюквен
минеральнои
букса
подсолнух
daf
арбуза
ecos
наливнои
егэ
менаж
гребешки
сотеиник
скорая
белоснежка
антибак
imm
дождь
tesc
mosaic
кордон
глубокое
вентиляционная
campina
canvio
тольятти
сульсен
##итамины
антицеллю
аугментин
shivaki
aic
clas
nou
nice
own
six
tune
барен
кел
хагг
чир
##банд
##тель
##цель
##ыб
##овики
##аря
шторка
##ображ
##any
6010
напи
##ough
##olis
##ragon
807
цветочная
нарукав
##ивающее
пастрома
стеклоом
##ураи
652
иоги
xlr
elari
пшеничнои
##apy
ротор
турка
serv
картоннои
пятн
врезнои
милад
груза
isk
quiks
creme
шлангов
очистителя
открыва
шампиньонов
саида
desk
его
kолгот
tablet
makita
vintage
ортодонт
чечил
релиф
физиот
пассит
самоклеящиеся
сканвор
включ
кузовная
клопид
интегра
ихти
bamboo
гарнитур
таганрог
eas
gze
kран
kлет
tat
лерка
пля
руля
##дан
##ьяна
##юн
##инелла
##очным
##опак
##enn
##alo
##осток
водостоикая
анги
марти
флешка
алб
ави
имер
cham
devil
варш
носочные
417
archer
373
роллер
exclusive
собачка
blush
кашемир
##ведилол
##endorf
закон
лото
perri
кардан
кишеч
palisad
supreme
giann
молдинг
jean
проклеика
пемос
кутаб
kerasys
кузнецов
трипл
nitro
fouhi
persil
мумие
проблемнои
cloud
киндзмараули
тюкавина
832
eri
kelli
исл
ленд
пэк
шk
шины
##бери
##ьбы
##мел
##zh
##zhi
гротекс
##идет
1111
ассо
салом
##борд
##вающии
##edes
акуш
572
лимонник
волн
spider
chate
neut
656
энгри
витушка
кукусики
pairs
gliss
вены
acme
667
669
папр
пятигор
нити
sfp
керамике
шурупов
проплан
пробник
широк
тюмен
тимолол
элементис
соевом
panty
клеевая
желудок
moto
adepaw
купечески
bestway
рвд
ольха
incanto
торговая
кофеиня
frost
моста
hydro
клеммная
qualita
армянская
композитум
kodak
american
nutrition
maybelline
адыгеиским
елабуга
chevrolet
mum
дых
кега
нистатин
пое
пим
пис
хокк
##одел
##абон
##альд
обор
перечная
водои
пирантел
compa
ручн
##ppes
углы
яшкинская
маиз
монета
палис
замков
тонир
натуральнои
средне
778
лаки
местного
маk
коктеил
esc
ключница
прозрачн
сердцем
модерн
##енсатор
владив
бульбаш
кунжута
искуст
valen
repair
масляного
оксиг
ретин
рецепту
cute
академ
неоновыи
лентои
аллюр
сноуб
глубокии
лицо
##ridge
рестор
скетчинга
водорослеи
pierre
щавель
расторопши
nexia
впитывающие
егорьевск
неткан
ичалки
житница
опятами
quiet
агрикола
стерилаизд
ставридка
клопидогрел
ихтиол
fte
ob
rome
wow
берм
вип
цем
##еиское
##чиками
##фо
##хов
##инил
##енов
##елица
черничное
короч
курт
##никовая
908
осетр
spir
##mid
табличка
расх
яшкинские
плато
стринги
жевачка
shi
nec
зубило
sms
ореховым
отверд
опх
376
граната
кожаная
slk
slip
венец
серебрян
смородиновыи
воздушная
здоро
##лавль
ресанта
castell
##derma
грунтовые
пудовъ
camera
##сkое
тако
присоска
finity
bronos
бенед
infol
оконныи
письмо
обогащенныи
педикюра
казачья
кузнецова
пищеварен
профилированныи
дельфин
поликарбонат
акулии
артезианская
hikvision
ушком
наследие
tramont
иошкар
bush
sonder
вам
вист
дот
дива
кеф
лоф
сна
фб
##пад
смаз
##ente
##ord
6040
бридер
809
газон
ань
говор
люг
скреб
классов
накладки
запек
choc
381
фильтры
team
камин
maxvi
плавыч
brav
ножа
галоши
amra
высоко
##tern
erke
турки
пакетиках
##етрим
самоконтр
василь
ультрапастер
usm
fbm
true
феррум
политек
аллерг
омсквин
башня
карнавальныи
лыжные
crazy
гренни
аквадетрим
сохраним
chieftec
струбцина
хлорофиллипт
перманганат
unilever
антицеллюлит
wella
диг
нж
оно
руки
сш
чм
##rx
##мород
##орик
штада
стил
моли
выпус
волма
855
балланта
##ертыш
макфа
окрас
наушников
phi
dino
тушеныи
омник
карамельная
гречески
##anti
кусоч
узкии
полоте
кухонных
патисс
ватман
ape
перцов
грузик
резинок
frank
9100
мочеп
изделиями
kyo
сашет
трусов
капитанскии
кизк
стеклоочиститель
multic
ярусная
kруасс
schweppes
феттучини
дзержинск
напольно
чевапчичи
протаргол
семилук
менажница
chateau
down
kil
kетчуп
oak
rav
youn
вхк
нх
сеч
хард
чмпз
шит
##аки
##fil
##eri
черники
карведилол
2519
##лоин
6050
капота
спальное
домовои
454
орио
##itta
##ssa
пирид
##улька
сингл
фрит
филеиные
монеты
alb
вереск
холодок
0013
вазелин
суперф
рама
абрау
фермера
saint
невод
оболенское
малиновым
европеиская
тормозного
bondibon
salton
благодар
цепочка
бантики
джинсовые
общая
демис
присып
adejum
татарскии
мороженым
гастроном
диплом
ровную
fruttis
забавные
шанх
неосвет
punt
инсулин
чарод
георгиевскии
bugat
шоkолад
цетиризин
хаггис
kлетkа
tramontina
eou
found
kim
mand
sour
trol
zt
деш
жав
жико
кико
чоис
##lima
##ьки
##енин
##алор
##очkа
##уберг
##опыт
##офскии
##истил
корня
получ
спло
мунд
сырц
масок
синеб
2222
электрос
светля
руси
00000
423
##urity
растяжки
ополье
472
утиные
723
slb
кускус
торф
##ardo
милан
рассе
cleve
снежка
полосы
регистратор
челю
пакетики
##arex
фенистил
жевател
rico
путь
сытные
##wsw
мистерия
motor
плоскогубцы
кленовыи
ромашкои
thomson
криспи
orientcraft
хартманн
пунш
kнр
кладочная
успокаивающии
breeze
christmas
спаржеи
нарцисс
leggings
huggies
синюге
миладора
young
pump
tenda
yes
zwh
ален
бесс
усы
##tor
##уk
##ту
##сеи
##цами
##нл
##му
##nc
##овент
##ональ
##лят
##урис
##едн
##истор
2008
подлив
тролли
##ядь
клавиш
барин
##ливер
глори
6199
##оксиф
магнол
pacl
альф
тушки
карамелька
0014
пшеничн
##aka
атт
ротокан
##одиет
совер
##енсия
senator
desig
dcs
полукеды
омлетом
леикоцит
солодки
муссом
headphones
стоикая
бычок
travelmate
уралбиофарм
shorts
расторопша
assa
климатическии
минусинск
security
дагестан
быстросъем
виброхвост
смерть
oleos
живопись
boneco
целлюл
диктофон
эхинац
cигареты
cond
вика
еа
забота
сицил
шант
##сервис
##чер
##ших
##ороз
##олд
##оку
грат
##раш
##лама
##ото
2022
6025
интр
твх
джамбо
##chen
##ательныи
рубатки
расцвет
вишенка
фильтров
котлетка
одна
##ственныи
546
ягодн
собст
проверка
кисточкои
потаиная
всд
624
brand
lpx
841
нестандарт
нержавеика
рукавица
кафелю
папаия
мидиями
кружек
novol
cbr
паиетками
##енбургер
opti
телесныи
железн
ладушки
dgs
аириш
walk
мороженого
здравень
обычныи
секреты
поддержкои
куркума
пеперони
происх
ballistix
пододеяльник
wer
беп
ева
ова
тяг
юник
##жения
##fu
##орн
##екон
черных
##уты
спины
трость
хлебзавод
цветного
##102
балон
огон
chow
388
начес
ответ
камни
театр
холодильника
поволж
##ryl
826
спирта
брауберг
фотоэп
цариц
основы
крыж
734
французкии
mixton
оболочка
покрытия
camomile
раскраски
calz
полубот
ламинирования
образная
корнишон
сосисками
контактные
позвон
эластич
химия
водоотв
однотонныи
сласти
multip
терапия
тюбинг
антивирус
лошадка
дексалгин
текстурои
лежанка
тоскана
стихи
archos
плазма
темпран
трансмиссионное
чародеика
cout
like
ring
гемат
гуми
унич
фос
хд
чп
##иотик
##ваи
##gw
##орцин
##есан
1025
##erm
##исон
1006
карус
белуга
##ильи
марочныи
само
##ceut
тортик
##oya
шампур
##омбо
профиля
russi
431
швит
ural
кислород
комбинат
бисквитные
правило
проводов
##ford
выпеч
симилак
интерника
##lesis
полукольцо
боярин
открытые
girls
ленте
амаретто
изоляции
пультом
khp
ninja
favor
mamba
серышево
папоротник
megap
mallony
rouge
фанагория
бластер
колумбия
ajswsw
пептид
пимаф
палисандр
владивосток
cine
ei
get
mes
mig
mfi
боев
мыл
рош
улов
хлад
цент
##итин
проек
крокант
служ
обод
1502
флип
5700
расска
954
платина
reima
томате
столица
беспредел
##марк
672
##ondi
нежно
##avy
торж
632
1051
редиса
поке
##оцин
кровельные
flo
0102
арбузныи
козинаки
boe
тостов
готовая
пищевое
углем
софья
полипропиленовая
gzh
##veler
therapy
visconti
японская
долька
сальбут
стержни
баикаль
хозяиственные
кореновки
чулочно
river
лебедянь
jblt
ополаск
бенгальские
rasp
женьшен
chrome
пекинскои
съед
асептолин
эстерх
аврора
распаячная
омсквинпром
бепантен
уничт
сальбутамол
kир
брав
встро
жа
млада
осс
саика
фиф
##tu
##лес
##ms
##mini
##play
##чег
##зил
##щеи
##олини
##стик
стуль
подбор
орловскии
##ровод
джуни
##упрет
синупрет
артиш
овощерезка
inv
брюк
силы
##uto
зубчатыи
настол
##енди
неочищ
персонал
натурелла
thin
left
771
вояж
seb
ромкор
0019
кубанское
загад
canyon
бурбон
813
лакомые
audi
##аксим
крыла
гео
барбоск
черносмород
croc
лорен
##tainment
пелядь
ящика
разноцветные
греция
cup
редисом
familia
сывороточныи
lacoste
диагональ
черкизовски
фосфат
kомплект
смоленск
визитница
microsdhc
бенгальская
василек
sdcz
entertainment
clarins
оружие
гепариновая
супракс
freedom
обществозн
tescoma
швитурис
sod
sibo
бета
дыш
##нинг
##щая
##оларинг
колич
##ories
слана
обд
полид
краин
##егат
##ышками
кремовая
креманка
панг
revc
shb
принят
антон
079
кали
облиц
lek
карамыш
лось
коже
##лома
мультидом
##анчо
##скан
969
хрустец
сиртаки
ssi
уроков
умн
букс
литва
аскорил
техническии
мерц
селект
linea
секунд
krafor
ванну
репс
горшочек
степан
##ностью
снеговая
развивающии
torx
бутербродныи
велкопопов
logic
opium
karls
синтетическое
киевские
angus
плотность
режима
##аблик
вышив
ваисбир
вибр
peach
хорошии
бубен
астрахань
флоу
словения
круасан
аквадар
капрезе
кариеса
парафин
##фильм
инсектицид
новомос
окислитель
низкокалори
delicate
paclan
revcol
cт
kруг
wash
еко
ониг
тин
хилак
##xb
##win
##bre
##етом
шток
призма
##утн
колхоз
##асти
##rei
спицы
джан
яблон
народов
свинные
резерва
золотистое
мондел
##andem
чернопл
антиз
smith
arn
лапы
иогуртом
level
садовые
724
старые
enjoy
##интон
хрящ
сибин
пауэр
ржаное
здоровое
маня
селена
горьк
батареиках
шпательная
maste
трюфельныи
петродиет
половина
grandorf
твердых
стаканчике
loft
зоо
вирджин
карманныи
pastel
пбг
тагиль
расширительного
выдержанныи
ажурная
гурмэ
иодомарин
занавес
хамелеон
fflss
шахматы
мануфакт
зиртек
биотворог
coconut
фотоэпилятор
gap
xy
бч
лл
мск
пята
рал
тэн
цив
эла
##вк
##неж
##mart
##щетка
грасс
##урга
1240
##альди
белита
3003
sts
волокон
филлер
shamp
9005
##oba
468
бери
433
фотос
лазько
ledoff
eau
живые
легкие
##access
милано
684
кокосовом
магнитные
cons
умничка
814
0024
сордис
продав
bqm
невр
ясхим
gts
заболев
россиискои
экзодерил
трапез
tail
мускатныи
режущии
сладкоежка
дополнительная
титто
расширительныи
радиоуп
ламбру
claud
нагреваемыи
самоклеящиися
moment
мовалис
enterp
период
заготовка
головоломка
хондроитин
##atraveler
шестерня
datatraveler
джуниор
eer
jap
write
дук
лям
носталь
рон
реи
сук
эуст
##ииская
##маш
##cr
##олента
##арда
2030
##офан
измер
##епс
##team
голография
паро
квк
##oola
##cow
ягерм
##омби
мират
мультим
повяз
##лянка
ножи
галазолин
##крафт
елочные
бежин
урин
дюбелем
parad
powerline
двухкомпон
вяленые
luxvis
наваш
##берген
пакетированныи
tda
зерненыи
ячневая
кондицион
хозяика
jetaccess
##аизен
дальнии
шашлычки
profil
тренинга
sprint
фунчеза
бахч
засол
фисташковое
stereo
celesta
пиши
иркутские
kарандаши
эссенциал
весенняя
росмэ
herbal
product
эргоферон
viaggi
принадлежностеи
нобивак
перекиднои
fancycase
jazzway
gioco
chicken
продакшн
cocktail
вулкан
леркамен
огонек
shampoo
luxvisage
nyx
зоди
хода
##cco
##арнои
штиф
##лаш
пран
##аше
##esis
розан
розет
show
6001
калаш
верап
462
беринг
скат
дюсп
3307
хрум
962
duster
креветок
682
colorful
техас
мультифр
мпз
жирнои
маленьких
деликатесы
чувст
ночеи
muz
пожарная
контактная
вспыш
uvoo
magnum
barbara
субпродукт
ngk
видеокамер
татхимфармпрепараты
обжимнои
кемеровская
вирусу
ингалятор
sleep
конференция
дмитров
кубаньмельпродукт
тибет
жаворон
aft
alex
gua
kom
lash
male
melli
rice
tos
гэ
ии
леон
нц
хотр
##bm
##эис
##ър
##олен
##оед
##имор
##ечь
края
смена
##ench
4010
полок
марии
##иными
фрито
грибок
5400
костыль
996
скала
acoola
наружнии
елоч
триол
совы
воскр
765
ирланд
севок
##огорскии
745
##окарди
плиточныи
pepper
milana
двухк
##ографии
прямые
зимнее
##ановские
jblgo
тундра
crosb
жестких
dcp
рогачев
vest
кроликов
итальянское
гусен
##винил
плотва
melon
retail
тагил
смоленская
редуктора
skyland
препарат
беидж
шармэль
pierr
неитрал
дракона
рублевки
indola
kальмар
keddo
щековина
miracle
russian
барбоскины
эустома
elast
himal
kонья
mort
wax
zs
гек
ора
шесть
ямз
##ror
##пел
##пеф
##пищ
##fox
##арус
##етте
##одон
##ельск
##амон
##амир
##имиров
##езы
##едат
##альным
5040
обивки
мячик
переч
домашнего
##ертис
античная
6170
##ничные
thunder
лимонадо
купец
скалка
повод
сервиз
латвия
mee
мармеладом
peel
троиное
шипы
козельская
комби
пищевик
сектор
денеб
баит
мытыи
крестовая
merck
cheet
белоснеж
тдм
мягкости
frau
инъекция
циннар
следопыт
вялеными
лыжи
полуоси
тренировок
krep
ландыш
memory
kукур
grigio
оксигент
циннаризин
fout
ome
stella
wish
пикам
##wk
прокс
##отерапия
стал
##абах
##огон
белы
1130
##аста
перси
отп
орлов
цве
##ибут
марок
яблочки
скрин
алвиз
желании
##ермо
##менныи
имущ
окна
палки
2104
alta
447
##oplay
сухарница
glov
united
0017
слоу
суперб
forte
foreo
##agne
школы
0028
winx
officejet
трависил
москвор
здоровые
попер
sanfor
fortu
анис
ремонтная
утреннии
талреп
топлива
фукорцин
incit
подростковые
нутрилон
полезныи
наждачная
рождественскии
коричнево
коврики
бежицкии
фармацевт
соскоб
бурлящии
quartz
тазобедр
антипригарным
семилукская
эссенциале
пикамилон
kerry
kаша
lina
nylon
бам
дона
жм
жад
миц
пиан
чис
##цином
##cat
##юнь
##kor
##kraft
##алф
##рак
млн
##адскии
##опия
комикс
кли
инвест
газом
джуст
spg
семя
котор
куба
мкд
листовая
стандартная
сушен
luk
поток
декорат
острым
816
турецкая
981
nika
малиновое
реилинг
китаискии
крылышко
patro
cdn
беларус
леовит
кавказски
кассетная
лепестки
панировочные
holika
fragr
плодово
aquar
блюдце
divage
селедка
перевертыш
казачьи
утреннее
gipf
тихорецкое
сазан
полтавская
чаикофскии
подготовка
batteries
смотровые
##оичив
enterprise
dz
nam
olt
лб
тул
тиф
хрон
##бло
##fly
##омицин
сторонняя
##аистер
6020
6070
поля
полиг
отраж
##унда
2410
##егр
##ati
556
shim
devia
одек
калории
мрт
allu
arg
379
натурово
балтимор
омедн
394
местные
назальные
##штеин
активныи
милки
витаминиз
плиты
кунжуте
нижнее
мотоцикл
пропис
дымком
рябин
##цию
маракуя
будв
omn
вагонка
морепрод
отбеливающая
ацетон
гофрированныи
технопарк
фуразол
пузырь
group
карманом
отверстии
пупыр
тигров
княз
college
romant
серпантин
cobra
вискозные
боярышник
варварка
колдакт
баттерфляи
лысково
jellico
гамбургера
zumman
физиотенз
светлячок
полидекса
psb
xw
zz
буи
виг
вав
лиан
сип
хеп
##ающее
##ast
##ферон
##арок
##аталин
##альскии
полбы
маслин
##ssic
##asa
суперг
цветочек
самокат
безз
амет
двп
одном
шпильки
очар
729
морковно
кострома
##еику
смартфонов
466
semper
##маркер
диувер
однод
637
627
легк
ткач
бумажное
оксолин
судар
##ignon
шелков
сзу
тире
dantex
заменителем
moser
гиннесс
выборгская
фонаря
мултон
икры
гербер
чудесница
пельмешки
трехсосенскии
вихар
преображ
мокка
canvas
суперслимс
холестерин
щрн
kоробка
клетчатка
водяным
конгрев
romeo
raspberry
верапамил
дюспаталин
fragrance
фуразолидон
bier
hook
lori
panda
ql
vga
бин
боцман
гуз
дил
рпо
сая
ше
щенки
##ture
##лант
##den
##шф
##wm
##овика
##ился
стиках
##имелин
##апас
карельскии
свинка
6039
полевои
##iti
тва
пластиз
лимонное
конфи
глазированная
сладовар
черне
внутрим
glove
мультиколор
плоскую
кольцах
атом
сверлом
макадам
бальзамическии
629
сочн
пашабах
бельевая
офлом
шариков
оцинкован
форест
1024
##верд
волше
реакт
фенх
облепихои
автоэмаль
рояль
зажимы
урожая
chester
capre
gddr
ректальные
премьера
azur
болгарски
болгарским
знаком
съемнои
заменителя
тсж
спасибо
сельдерея
elements
модульная
флуимуцил
кустовая
весенние
жвлс
hausm
абхазия
старорусскии
ostendorf
джонни
плесенью
инкерман
паспорта
медикаментозная
тальятелле
уроки
фармасью
corvina
neoclima
шанхаи
обществознание
краинего
продавец
bps
аива
буст
гозн
дск
зип
июнь
линк
теип
танго
фт
шед
##реи
##lie
##пант
##pf
##мм
##ыс
##фреш
##инатор
##еча
2007
компас
полнои
морилка
##ибл
наряд
5770
##прес
помадка
who
орехово
холлс
девушка
диета
eagle
планер
чаиные
924
ультрака
kupu
отварн
липкая
форсаит
нитр
теплосет
популяр
малышок
невские
пищевых
vernel
аэрозольная
macro
животного
sensor
цилиндра
genesis
улан
воронежская
linx
басмат
дворян
kуриная
фетучини
полиэфир
ловушка
кулинарное
кизил
раискии
joyroom
tresem
шляп
чулок
смаилики
curve
##rotik
мультизлак
изоляция
полярник
круасаны
аперитив
##clean
азиатскии
quality
натуральным
дезинфиц
слобод
триггер
приятель
##бытхим
kovis
лиственница
вантуз
эстерхази
уринари
будваизер
tresemme
kольцо
kixx
lil
sang
zor
бж
оникс
пури
цокол
##тона
##конд
##cel
##овир
##итон
прил
стам
##азныи
##опурин
через
##офлав
3055
кореис
анод
марбиофарм
яблочнои
сливовыи
cyber
самураи
палермо
##ipe
антенныи
одув
alma
374
элик
топик
cold
серебром
##ционное
загруз
арахисовыи
2601
совковая
493
баварски
sauv
ветерин
borgo
вязка
посудомоеч
тверская
coolpix
лезвием
американскии
чикенбургер
капелька
##рогл
koz
bref
nutri
электробритвы
нижегородская
пушист
камчатка
champagne
установочная
полусухая
путешествия
собаки
биосинтез
хирургическая
интернет
брынза
netgear
можжевел
detox
пророщ
ривьера
алазанская
гостинец
ламбруско
foutl
гознак
aber
imi
kры
vap
wo
луб
лунт
пья
рип
юп
##лис
##мента
##микс
##del
##gri
##илан
##убин
карнит
конина
мудр
459
порцион
экзам
алыи
##окаль
стеклом
##охлеб
658
demet
redragon
asics
##fee
temp
купальн
грань
трубок
косои
санофи
редди
горячие
761
737
698
клубнично
0108
гелевых
немозол
голову
mycase
африка
россииская
мдб
приборы
двухстор
густо
вкусняшки
аллопурин
добавками
##cord
##иатра
прищепки
амарант
underwear
pharmaceut
обезжиренныи
##союз
вятич
димекс
beef
александровская
архангельская
полумаска
вегетарианскии
перенос
смаик
mikrotik
гункан
успокоит
магнолия
тагильское
однодверныи
аллопуринол
836
bour
dst
iber
jy
let
lak
rum
uz
ава
дью
##lan
##зит
##gra
грамота
нах
##аке
##имол
##имскии
кромб
белогор
1170
1820
##агр
морд
экг
выравн
разных
брюшнои
0300
рулевая
помаз
кошмар
силиконовые
asc
трубу
помидорка
ванильно
eacs
потреб
противоск
урб
498
733
аскорутин
правое
нитрогл
паучи
текстмаркер
ясные
малиновая
941
нестожен
надб
calve
сандвич
облепихи
tristar
аджике
филипп
minot
puzzle
стеклоб
0202
пружины
вешенки
офисная
сальч
черемуха
програм
libr
протеиновое
сульф
euros
подсветка
посыпкои
estrade
тюбик
gusi
craftmann
шинш
бесконтакт
отечеств
гибридныи
elegant
бомба
horizon
centek
##арелто
шафран
##kopf
apecs
присыпка
megapolis
басмати
imiki
cъ
dob
gab
kм
kz
moh
pino
yb
бмп
дг
лингв
мэл
тент
##кодержатель
##food
##чин
##онна
наиди
##азид
комф
1190
##остат
1440
минни
##esk
натура
369
канада
каневскои
mij
биом
528
топора
собач
991
тушения
ans
acid
plat
тесты
планинг
всего
628
763
sws
насадками
держава
ребенка
mdm
массажа
verde
steam
косметическии
belle
фенибут
giorg
fcc
trail
ранец
metro
мамы
ксарелто
forti
открытыи
пгэ
резаная
kапс
charg
бедр
цефекон
акциз
соленым
вяленое
использу
keratin
биотики
готовальня
леибл
нутрилак
чесночным
кавинтон
гутт
lagerfeld
хиллс
тенниса
фунчозы
белебеи
лоусонс
psych
бижутер
сырцовые
вихарек
димексид
нитроглицерин
cъшф
dir
dix
kan
sed
сбит
##уски
##маг
##мяс
##az
##nu
##ште
##kов
штепс
##акон
##опра
##aria
6045
сли
арист
перышко
##афарм
##ецки
акула
mait
prolite
##isc
деринат
фриз
8500
482
reex
sha
замутн
6150
орехах
неоп
293
721
543
прозапас
консерва
slide
##shell
##оприн
дюима
закрома
##ящих
остром
рамныи
внутренних
classics
двухсл
двухкомп
городские
monge
luxury
magna
casual
учись
946
oliver
gah
очищающие
рогожка
дверное
therm
ксимелин
треугольныи
ультрапастериз
флюид
рэи
justik
trek
мбс
mannol
шеврон
мюнхенское
lanos
powersh
mobility
пивоварка
##attro
factory
трескои
шариkовая
счетчик
selfie
гримберген
hisense
allied
бескаркасная
нугои
phiaton
cъшфър
liv
tondi
wonder
беик
веи
куч
моб
ока
фмк
##bp
##ерия
##енн
##енкои
##одного
##итек
##ines
##адеб
##озам
##иде
##ушко
1185
мун
муцином
##ssie
детали
маркир
джанг
шоколадница
микрок
авент
таблица
банки
индиго
любов
каниф
антинаки
6195
элеш
трубныи
anc
gree
397
sld
hex
elle
##чатые
дарья
взнос
тканев
##ептол
868
фиолетовые
icebe
механическая
моментальнои
дачные
lexline
боярские
##рогематоген
феррогематоген
телячьеи
kdl
moscow
хозяиственная
ярославская
древесины
фиберг
ветчинная
лавандовыи
богатырская
кошачьего
сыровяленая
неосв
полиэтиленовая
индикатором
стекловолокном
ярлык
тоффи
yamaha
самосвал
кижуч
соблазн
электрогир
дукча
кромбахер
jble
novo
sid
sib
tag
ure
zel
ита
ланка
пя
пеиз
пильныи
##тл
##лиз
##plast
##яшки
##hne
1013
##ице
##omed
подкр
1620
##ическ
цветным
##otion
стеклок
рубер
regen
матем
##брои
5927
диал
сверка
##othing
кокосовым
внутренним
ухл
сардинелла
саир
6923
коул
laur
постер
усиленные
кишмиш
пробы
испанская
аису
полусладкая
ринза
датчика
станица
половинки
бусинка
gzc
lexmark
kleo
приморья
hcs
##околор
петровскии
аллег
advance
льнянои
curtis
таимыр
дальневосточная
вещеи
дракоша
компонентныи
botanica
кэа
бешамель
wrigley
simply
бульбашъ
ультракаин
лунтик
bak
ect
fol
jogg
ner
ym
кч
каи
кертис
почек
сень
тинт
шик
##ови
##алс
прода
##ельно
1215
##апс
##inc
водос
спек
9010
солевая
внед
phb
476
teal
648
лакир
##111
eltron
романо
673
тетради
свечнои
агуша
славяна
жевательное
abb
лепка
первого
арбузно
консервированные
боксе
хрустящая
зерновые
якут
хозяин
пистол
6105
хамса
grande
сытыи
film
треуголь
леоп
пекое
пряного
##хват
отделя
denn
черепашка
затяжек
парфэ
fract
рабочии
физика
vplab
whey
полярныи
воздухоочистителя
стриплоин
каштановыи
обычная
натяжнои
вифит
versa
алешин
стевия
магаданскии
разглаж
slippers
мелодия
aopen
дижон
самарамед
полуботинк
позвоночника
онигири
жаворонки
аметист
рубероид
cif
dji
kв
kardon
olu
rib
tav
аник
бех
дф
драз
истр
лект
тои
точек
хаш
шелка
##pc
##blu
##каль
##инныи
##орное
##ерсы
##ановка
стро
1035
##нира
крю
марля
малые
вкуснос
сквиш
амф
##cop
пластиковом
автоз
любимчик
баббл
провер
валенсия
холодца
sof
атен
668
простор
кокосовои
973
766
бисквитно
лепешки
кулич
caffe
бархатныи
7900
зефирюшки
fito
тропические
органика
гибкое
комплексное
вязания
зерновое
репка
вафельном
harman
точил
puh
тримедат
merci
месяц
латексныи
техноник
басик
возм
boys
произвед
антипят
болгария
лодке
bottle
лопатки
dynam
##urila
функцион
водоросли
припущенныи
сокровищ
jurassic
изыскан
селянски
отдыха
галогенная
вамл
карусель
gloves
cell
fem
kos
pens
rin
tmp
tikk
врам
вектор
июль
непт
ночные
чив
шуж
юныи
##vac
##ены
##ател
структ
смир
перег
мунал
троя
4001
1750
экош
пластинки
люрекс
ips
волчок
852
##охлоп
##ущих
386
столяр
варить
заверт
удачи
beoplay
ягодным
азур
678
сушеное
папир
abc
соединит
hoover
mont
ветр
792
##itachi
бетадин
саранскии
лечения
маринованным
гладильная
balm
стеклопод
тенорик
маме
ltb
экстрем
рулонная
белорусская
эвкалип
utana
черепаха
профессионал
pils
дэни
kiab
бакал
дипрос
##vente
луk
гриджо
nobby
leaf
cesky
адванс
роскошь
младен
lonzhi
пекан
easyp
маизелс
отвердитель
лоферы
пеизаж
jogging
отделяем
технониколь
вамлосет
врамед
pws
yolk
виж
пеи
речка
шишка
эле
##sch
##крат
##докс
##gn
##итц
пряд
прокат
##оглив
##ильтра
##robot
капитал
облив
##терян
отст
4006
909
prosto
сливовид
голицы
1205
858
банное
1106
балки
балкан
слада
сладостеи
канатов
dem
6198
энгель
витеб
средства
автодержатель
tek
sub
cote
чистоп
unip
лесным
дюфаст
плоские
хрустики
ротанг
ротбанд
hazel
рассада
цинковая
##оиная
комбинированные
avon
акватория
постоян
родился
инфильтра
очищенныи
mcd
еды
синтеп
solar
фиксирующии
пружинка
thermo
электроннои
indigo
уходу
planet
липучку
krups
фосфоглив
wallet
оленина
клеевые
термоусадка
welln
ставропольское
закаленное
биоматериала
##azza
econom
schwarzkopf
дыни
ураган
демисезон
эхинацея
внутримыш
аникеев
атенолол
tikkurila
дюфастон
831
fbl
jf
kекс
lara
tang
xstyle
беика
впр
дали
зомби
кст
куки
оак
цим
##ials
##арыш
##анки
##азон
##опа
##укскии
1160
салака
моло
1410
газирован
stieb
микст
артекс
рулевого
грибное
бумвинил
##ерсон
шпиг
тариф
калии
pac
588
сеточка
фотографии
мирос
хрустальная
блинныи
881
цифран
sonic
армированныи
туалетов
фунги
бочковои
898
мишутка
бороды
европеиское
salf
гурме
ситец
тенотен
халял
уксусная
тюльп
perfecta
wahl
узбекски
farina
телескопическии
химч
арсенал
лариса
сметане
мулатка
lavazza
incan
изолятор
выгодно
долгит
фоамир
укрепление
хантер
дюрсо
вертлюгом
регулируемыи
гаспач
электроплита
тлт
kабель
kитаи
giuli
пневмохлоп
маршмеллоу
дымоход
##reiber
japan
##офлавин
урбеч
вифитех
stiebel
efa
fax
jade
kоф
kens
беб
ех
зент
лира
нуж
##нскии
##fsen
##газ
##арии
##арби
##атро
##иту
крив
##азян
смотр
##альника
своя
корин
##ильн
##lage
обес
аркад
полки
##унин
prog
лимо
##радин
##ектива
##ированным
484
монд
3700
pak
купальные
смесителю
костром
581
фотоп
slv
мирель
bls
кашт
phili
агар
carp
сортер
эмали
рассады
6800
974
sches
schreiber
цитр
цитовир
геомет
luxor
vera
виал
##итрипт
digis
cooling
подшипника
половинок
бантом
колпачки
ботаника
сфм
самоклеющ
железная
reson
стикеры
режим
absol
почт
melitta
одинарная
бактери
кишечнор
обжаренная
спелая
german
fixzone
мажит
матрикс
лучшие
пишем
##оскопия
хоббс
ультратонкие
билль
шанежка
челночок
столешница
односторонняя
кудряш
ценник
протертая
геизер
урсосан
информатика
развивающие
прыщеи
kолготки
еаэс
пимафуцин
хотрем
теплосеть
library
yolkki
efaer
cq
hitachi
kин
kост
pig
зона
ниг
нора
##rer
##бола
##fb
##гия
##олап
##олло
##рашен
крс
##оперка
1119
##olina
756
цветных
алиг
самые
пряные
chikal
shark
##синая
фильтрованныи
шплин
вареным
arko
опарыш
teato
5365
фитофарм
лесу
ssl
кислые
927
батареи
##илаит
fresco
classico
flora
saem
шлифованныи
salva
poco
станичныи
шашлычные
пожел
белорусски
берлински
mazda
цефот
эдарби
дальнева
минералы
бельгиискии
энтерол
щелк
укрепляющии
кармаш
камуфл
бимет
яшk
сицили
суворовскии
гелием
##оксиа
быстров
аркоксиа
псков
окружающии
cветлое
spirit
foundation
поволжья
эластан
easyprint
chikalab
bin
fac
jar
kант
lis
zu
бв
дыр
лиза
##bier
##hs
##ерат
##елид
##стеры
##атэ
кро
белов
0050
2009
6035
1320
морган
брал
супрадин
store
разные
4216
chip
sher
389
neop
arr
529
петли
##active
596
supp
граненая
консер
##211
венз
scot
0018
сиббит
829
асаи
dura
бакл
терр
фаршир
суперч
толстяк
дюбуа
##hium
подвесная
жилком
тормозов
репеиное
колесная
soler
стопарик
pole
tbm
месяца
captain
capaa
вилок
makfa
сантехническая
позитив
глюкозамин
инструменты
водоотт
пемза
учебников
fooda
льняная
ольх
защищенного
reserve
риттер
записеи
препаратов
билир
егорьевски
blanche
многофункциональныи
биокефир
благовещенск
football
щупаль
арнест
смягчающии
ведерко
шуруповерт
мочеприемник
фосфор
воскрес
джустим
kozio
внедорож
вкусносок
шплинт
omax
tul
tonic
wv
wel
галл
гмз
согрева
цинка
чуч
щуч
##рец
##шеик
##окос
##атье
##осл
##едо
ариант
отлом
0120
##очках
##usa
цветочки
##акар
микрон
клубник
параб
inu
inx
монте
##utz
одес
##тяг
5234
leader
1601
верес
лимонадныи
pastic
пвд
ароматные
камелия
старше
втф
коньяка
устроиства
декоратор
крабик
тертерян
ярче
0026
полусинт
baron
расписание
##isser
onzo
бигуди
интекс
комплексная
аромас
саранск
немел
гирл
трикотажные
razer
чаинике
значок
merries
volsten
##metal
оладушки
пожарские
засоров
непрозрач
чечевицы
раковину
ритм
кофеином
bouquet
стрипсы
поверхностеи
двухслоиныи
полезные
chappi
performer
targus
омолаживающии
джуси
попугаи
толстолобик
erisson
аньехо
пианино
хеппи
саяны
сальчич
сбитень
##штеина
антинакипин
подкрыл
olufsen
пневмохлопушка
цефотаксим
iap
not
tze
wool
zis
мизин
ушко
хоп
##вина
##ватор
##pn
##мень
##ila
##зо
##gro
##олш
##ователь
##итос
надо
продажа
##акер
1515
арган
перинт
##ически
карто
минскии
джег
розочка
##imp
барр
семер
рубиновыи
балка
reina
chil
антар
1302
фарша
апельсиновая
метелица
prem
звено
hegel
формочки
пленочн
##ящие
сочинские
модул
744
подлива
кунжутное
cez
starbu
коллектор
upvel
рассасыв
озерскии
kрюч
brew
влагостоикии
кембр
youth
кумкв
форсунки
synth
ветчинные
fnh
market
декспант
пивоваренная
кабанчик
колпачком
студенческии
гравюра
жалюз
роиб
amazing
тюмень
сенсеишн
торпеда
микадо
одеколон
офломелид
стамеска
demeter
мэлори
charging
resonans
отломи
декспантенол
hav
liz
mur
vile
xj
yt
yves
ваизен
дья
лух
лига
цене
эдам
##yan
##иоз
##mes
##nes
##шего
##ui
##xo
##град
##хс
##ста
##осло
##ельнои
стафф
1007
##азар
черенка
свадеб
##обактер
1117
сала
слеп
сплат
##ssin
горница
complex
электроблин
паркер
851
3160
тортугалия
dexx
фарфал
витр
биоком
тонких
8001
collect
кожан
слоин
6600
atcom
0029
serum
продление
правила
laura
гнут
palau
налобныи
epil
solut
пульп
душевая
омлете
скорости
каска
ложку
регулир
белгородская
талосто
обработ
терафлекс
walme
kamilla
foods
cutop
риту
essentials
kraftool
urbane
ижевск
фольгированныи
криспер
подъязычные
ampou
гепатита
ergolux
нулевая
ударопрочное
поворота
ипатово
трэвел
multicolor
экошпон
электроблинница
cant
jolly
lets
nim
qp
tony
кои
кэр
лест
##pil
накид
##уро
##едов
##едрол
##оформ
##остав
водораз
морское
##унка
шоколаит
##янки
2217
разин
котики
угги
яицеварка
rec
##ooc
контраст
##укал
1303
##sba
натуретто
професс
2900
preston
уголки
727
махра
дросс
7004
сансет
961
grinda
терп
жаров
руку
sonn
бурж
смородин
736
специях
fila
ленор
ветер
кунжутныи
lumix
solaris
моментальныи
бусин
mercu
иваныча
арго
motoro
визаж
##тяжки
европодвесом
бортик
подростковая
полярис
обрезь
рикко
воротник
гленвитол
workcentre
маинкрафт
безопасности
шипучие
автошины
нерафинированное
сделаи
пьюр
известь
застежкои
блэку
skates
hyaluronic
пляже
мундшт
gipfel
дразн
антипятин
жилкомсоюз
cezaris
urbanears
ace
gwh
kов
lig
mesh
tender
бафф
вуд
рти
тф
уск
шф
##pon
##iw
##анон
##окка
##атра
прои
карача
##аидж
##ening
1510
##изи
молоки
блочки
458
##rado
картины
горгон
экол
ана
##301
розово
самое
1105
chips
новарт
6166
##роне
купорос
ягодные
ani
лазурныи
тмин
крупных
атам
терек
ultram
милые
trone
песч
заварная
кровли
солнца
magi
поста
creed
snack
guar
bauer
гибкои
полнора
mrm
интерьер
вязаныи
косметические
плетен
стопок
##элис
акриловые
гигиенич
проходнои
genius
ламинированныи
применением
kрекер
etre
белгородские
леккер
астория
вышивания
рузскии
отверстием
кедровым
спелыи
пмм
феиерв
использование
невидимыи
lamark
игольч
betty
лекарственных
фабри
эргоном
африкан
крапива
кэмми
гантель
целлофан
походов
карапуз
резонатор
zetton
окрасок
гратен
темпранильо
торжество
зентива
fig
kат
kab
tig
боя
гли
дени
зб
тура
##ski
##суп
##вуд
##неда
##зопт
##элек
##елист
1230
##озр
откид
треб
754
марkер
супр
микроп
алые
3501
грибном
маковка
новбытхим
прочие
994
берл
одноф
сиалор
бакинское
928
школ
3102
apa
fiio
##джер
##пферон
oll
rosa
desire
прямоугольник
рогнеда
##orian
снять
boxer
sanit
непастер
дольками
пинетки
подкож
присадка
родниковая
adejub
vanish
oxi
vitac
protection
хорошая
запаснои
homme
димедрол
ukid
подкопченная
сокосодер
ожер
кружевом
пластмасса
тушенкои
кемерово
losan
mercedes
парикм
токио
торцевые
помещения
сацеб
арсень
viking
shamtu
##орастворимыи
##charge
кепи
##лучатель
deskjet
##идетель
проксима
мароккан
имущества
sauvignon
используемыи
zelmer
дипроспан
инфильтрационная
motorola
ios
jv
jac
lut
sia
vig
yg
дамп
зна
кука
ревит
шифер
##cil
##одет
смок
колонки
конек
полное
отпуск
картона
ано
джил
флеб
осушитель
апр
аввг
волч
элекор
spin
shock
443
##нова
ароматное
камню
glo
диско
деке
коньяч
сын
галина
1901
prt
##angler
864
695
тосты
удлиненная
геленд
печеным
едим
вермишелевыи
check
проход
сашими
чашке
приморские
волжские
обыкновенныи
holid
петровские
wmf
махровыи
кандид
ventus
готовим
горчичном
павлова
wolf
подогревом
арктика
черногорские
hoodie
компрессионныи
нанесения
human
джунгли
алгебра
artists
вредителеи
кишечнорастворим
черниговское
караваево
pretty
суперфосфат
ягермаистер
##пищепром
romantic
эвкалипта
kантата
ach
das
gvs
sac
века
каизер
нз
эстон
##pk
##икор
##очkи
##отека
##оторг
1021
1221
##азы
##ицина
##ицкии
5030
свн
##аидер
3090
пече
подош
блед
ориент
картинка
##андали
минир
##иформ
синек
народное
стекле
индилаит
кабельныи
палт
матв
##рыб
exotic
сети
ванильн
омпк
else
##ruit
коробки
6334
великие
редкии
раэ
противот
спиральное
oneplus
classik
порто
бурыи
ergo
офиц
медведева
окорочков
зефирная
airw
born
gsk
репаблик
##жимнои
intro
пониж
originals
tuk
##ролин
ступица
подгузник
hipp
пиносол
бытпласт
политех
мегрель
dfs
фильтрум
otg
надувная
vlp
взбитыи
облако
терапевт
пучок
жалс
rondo
элегант
кратно
rotmans
бузд
термоусадочная
teatr
пресшаиба
хлынов
kоктеиль
валдаи
lithium
vacu
средиземном
снимок
считаем
оборуд
ностальгия
леопард
inuovo
##электр
cin
cov
cure
mch
sir
гф
жито
иска
левое
нпо
прад
сни
шим
##ается
##fy
##pd
##мина
##чк
##зу
##енед
##анин
груб
##ирон
##ицен
##обор
##обоика
##lam
##ros
арпеф
персп
1370
##ilies
чехлом
оси
соусник
##никами
амитрипт
##стрим
конфалье
угла
балаб
рисуем
каникулы
neolux
завтр
творожник
478
утинои
утюж
веро
верет
верные
772
сдр
547
гранта
##ograph
крупои
677
стирательная
lui
пенное
сочинская
бакинские
полотна
ушеи
conv
819
полусл
lpb
##рафен
hofer
ленинг
теплоизоляция
родники
секция
olive
гирос
догов
medica
репч
венгерка
бульонница
fsm
opel
технология
пышная
музыкаль
нанопласт
мираж
ппрс
пушистые
нпэ
##юшкои
недели
pwm
булгуром
чапаи
надпис
ювелир
trendy
##несси
тиснением
imperial
настоящая
kаленд
elegance
henkel
hunter
женьш
##azzy
выключателем
развалины
bloody
скульпт
альгинатная
ретинола
cheetos
ткачук
fractal
фарфалле
арпефлю
амитриптилин
gara
gkt
iz
qg
wy
аос
мив
пень
теди
##тс
##чх
##ns
##фрут
##инскои
##ража
##емп
##оплаз
##leo
полено
1480
чехонь
сливк
##igra
апрель
фрис
электрош
наколен
светом
глэис
настои
шпиль
mist
крепкие
биаф
тонзил
leek
кнуты
стальных
магнитным
##thing
raylab
мерца
дону
керамич
мото
чаепит
gaz
головок
дпп
дорзопт
##arius
славянки
##ественное
gzt
roche
коррекция
portable
рифл
motul
цераксон
церукал
цинния
хирурга
жигулев
globa
горизонтальная
outho
обучающая
разборныи
unicum
сторона
камеру
chao
забавныи
сокровище
офтальмолога
maximus
tamron
наименования
многофункциональная
бретцель
future
брюнетка
прищепок
брюссельская
мотыль
дынныи
орегано
акушера
ftess
присосках
синеборье
кондиционера
omega
фармасьютика
стеклокерам
мирослада
алиготе
pasticci
жалюзи
ampoule
ais
dip
drop
fall
gps
kонд
qs
zod
вега
луки
нпф
##оат
##су
##сион
##зян
##еровка
##аро
##елен
##eries
##руш
##альк
карлов
коржи
0045
перкаль
##atsu
709
comput
##ормил
index
брюшки
натр
##менко
матки
1402
##urance
##рыватель
##owe
6147
6197
растяж
растегаи
носиком
калинка
гость
5299
тонди
leop
##разим
567
726
931
maxx
scdesign
hdi
атлет
великан
болты
сириус
сирдал
делик
amg
пашт
883
эмш
красноперка
магниты
764
kuhne
winner
msw
абрикосовая
томскии
томлен
flc
скумбрии
##уаре
маркеры
giov
афоб
боксы
россииск
увлажняющее
omg
душевои
tass
carefree
fest
sandals
dreams
спарк
открытки
ftw
пуховая
гриппферон
заслон
tesla
tesco
биолакт
cruzer
хорошо
djazzy
мухобоика
##ющимися
булавки
minerale
стираи
давыд
давыдов
crispy
egoiste
гаики
булгарпиво
adetsw
скребком
совершен
принято
сеньор
спектр
hazelnut
геометрия
leopard
сирдалуд
fis
gle
hosp
vat
wed
wize
yota
гля
гиа
мш
рико
шином
##eme
##rin
##rene
##декс
##прафен
##ih
##феи
##ku
##опсис
черева
0033
полис
##удер
0125
малого
proconnect
##артс
##103
резины
медофф
аморе
##чиков
банныи
952
3120
фасован
холс
чисто
драж
##shock
импра
оливковым
хрутка
галета
бурек
погреб
лити
турецкии
песочные
cord
воздушного
французки
донормил
846
эрот
тропич
web
##ешках
реактив
краснодарочка
stars
элитное
triple
раковина
мозг
senses
##чиk
жемчужная
armour
limpo
##ользящии
высокая
пентоксиф
макарии
wtr
колеровочная
дамон
бычки
selen
плюше
interactive
rommel
бастион
вильпрафен
флемоклав
строган
паях
повышеннои
baykar
favou
переноска
гавана
классическ
регистрация
белореченское
cleansing
couture
скрининг
эликвис
##deluxe
##опрамен
сливовидные
##sbacher
holiday
garage
афобазол
rommelsbacher
hba
дров
жер
зоны
имен
шг
эш
##рином
##рикант
##ting
##овед
##002
##аник
##алы
##рукав
##исы
##ично
##ольного
упл
##stri
бран
5550
stin
stur
микразим
фрез
##преи
бутон
расколбас
машенька
палка
контеи
shake
сладояр
##маил
черногорск
6002
almond
старопрамен
costa
венарус
адрес
санорин
виноградная
стере
492
окорочек
тканевыи
бонито
роснефть
dior
планшетов
##board
родничок
секунда
##корд
шлифлист
##ензии
hatbe
sale
salter
аджикои
развив
разводнои
декоративных
собствен
perfectcare
зооник
высоким
bott
модифиц
malta
intern
титбит
homel
шсмм
лучшии
ультразвуковои
пружинныи
citizen
parisa
экструд
reflect
мусульманская
меренги
роскош
черногорскии
giulia
docke
нагрудник
provence
попсок
invisible
cупермаркет
новартис
пентоксифиллин
aha
fry
got
gent
qf
yor
аж
атр
вла
зи
зира
пти
реики
сест
сено
тобр
хц
цист
##time
##плика
##ьянка
##fan
##nite
##wor
##хам
##zal
##орф
##окот
##атч
грифон
1211
##озар
изб
1140
##ладин
брянскии
##asco
синее
кремль
винно
алеб
паруса
монп
##adi
огне
427
бумер
столовои
whit
шпон
alize
ударная
5418
##def
great
лососевыи
устран
асахи
marco
фрутик
fazer
kuu
наклеи
герман
казанскии
steels
колесныи
фенил
бисептол
epri
##элла
sunm
союзм
клеммы
ростовское
петербургскии
ортоп
denim
##mont
grizz
шотланд
вируса
карманами
рукояткои
techno
otten
ikbr
эспадр
пассим
змеи
письменныи
оленины
щелочная
ставрополья
абаканское
функциеи
клоун
неитральныи
diado
можжевельник
полутверд
студенческая
racing
sensations
кератином
троекур
various
шпажки
anylife
камфорныи
полупрозрачныи
варшав
bushido
крыжовник
москворецкие
отделяемого
голицын
мажитэль
противотум
hospital
шиномонтаж
steelseries
эспадрильи
folk
lag
lake
right
sco
tin
ug
vix
yu
yk
вф
рk
сени
тах
тпо
##осъем
стыков
1280
смыв
##альч
##игатора
##aler
1550
1520
##астка
домосед
домкрат
4005
##анджи
мясоруб
флэт
люмин
артур
апк
апекс
самои
фрик
бане
золотисто
оком
картриджа
657
пластиковых
asx
993
звен
4600
деколь
anna
кальци
девоч
покровскии
подарков
часар
рацион
##ировочныи
##ницеи
kitt
kitten
972
861
аббат
травах
693
сильныи
врк
отборн
теплоиз
##ирующие
##former
bah
895
akt
mode
##heat
пенале
южно
роликовая
цилинд
rober
расчес
мамру
transformer
таманскии
темпуре
отдела
хорват
меженин
прогулка
поильник
султ
сиреневая
густые
holy
contour
дэта
dkny
кумач
korner
естъ
squad
nails
географического
каприч
распредвала
rondell
яхонт
феттуч
вертикальнои
капкеиков
антистатик
черемухои
стоимости
фэнт
ridge
капиллярная
свистком
страчателла
пенополистирол
искуств
низкокалорииныи
pinotex
стеклоподъем
яшkино
starbucks
сацебели
elseve
утюжок
sunmight
bike
risk
rover
tandem
will
zer
дион
коко
оил
хека
якор
##yk
##цена
##fish
##кири
##оски
##евиль
##отранс
1009
смыва
##обенз
##улия
##епта
##lade
арш
перез
краск
##stra
##iter
хлебпром
карточная
1910
##еши
джамп
пласти
электрич
6165
витрум
нарезан
thun
2201
569
копеики
649
косточек
тушенои
unis
кокар
листе
птички
плоское
еврос
термозащ
косы
беспроводное
бутылке
школьник
шариковые
##phy
schutz
макаронными
кровяная
пятниц
cache
олв
олма
миндаля
грузовик
нижнего
пропол
basir
biel
неилоновои
пурпур
второи
##молоко
дворик
шебекино
doroth
влагов
astral
раздолье
kрасн
pencil
lavr
иммуно
тонизир
lammin
растительным
тарелке
ровеньки
колобки
лаванды
факел
bobble
окрашивание
утренняя
обнинск
стимулятор
##осмотр
поливочныи
passport
алкалиновая
клавишныи
шварц
gorilla
vortex
ужин
бензонасоса
ферреро
баренцев
пангаси
кореискои
кошмарики
mcdodo
фоамиран
##хсзян
феиерверк
дамплинг
pasticciere
billa
belly
jz
jardi
pets
wis
yong
zr
гонки
жмс
жилья
нуб
##тинскии
##vik
##qua
##кам
##етры
прут
стом
##ечье
##азит
##ожок
плэи
##обл
3030
20000
печата
1587
подтяжки
6029
##агексал
1501
пламя
ином
карте
##иши
малинка
##ивающиися
самб
##пера
матрац
2666
6160
pharm
свежинка
9001
нарезку
##сация
##елями
bek
5360
таимер
elsi
##ava
закр
торо
асень
skull
##илинга
кокосовые
бутылки
бутылку
погоны
царап
брусничная
передних
имбирно
6900
проводки
америка
манник
0051
малыши
nikkor
гелии
macco
графские
урожаин
архит
союзпищепром
декоративнои
конфетница
dualshock
вешенка
лепесток
блоки
устоичив
полосатыи
отверстия
kors
композиция
##jug
малаховскии
восстанавливающая
regular
boox
раскладка
чурчх
рассыпчатая
triumph
зеркального
роспись
tuborg
волокно
совместимыи
симферопольское
assassin
lefti
канифоль
завертка
сальчичон
honda
vod
vls
xen
дарен
жор
пульс
сыч
сэм
фент
хs
цы
чашки
эстра
юре
##yg
##нт
##dia
##флот
##онии
##алкои
##окр
##иверс
##рутка
2040
##eno
1115
##остная
##ольца
6027
перея
##овании
триган
домашни
россиянка
супертон
mais
maison
вине
вафел
электрокарди
помпон
dex
ролика
заводная
##ineken
mila
апельсиновые
thai
слакон
снэ
очаг
удоб
гранула
беруши
фотис
банановое
бананово
accent
закуски
термолента
eaэс
галан
покра
данилов
активного
мальбек
сказок
сильфон
теплые
twister
закусочка
герп
##space
pattern
wdb
ленинградски
белоснежная
victo
cerva
давид
earphones
зверюшкои
кимоно
обыкновенная
усть
унипрод
обслед
хмел
змеика
divin
жгут
перевоз
установить
умывальника
bossa
биосладия
братья
милкшеик
тубусе
tanita
елисеевская
антиприг
тихорецкии
брызговик
барабуля
adrenaline
cowon
мучные
пребиотиками
arabica
ecosys
велкопоповецкии
загрузкои
химчистка
гаспачо
коринфар
щупальца
чаепитие
astralux
bad
hop
mys
pny
town
wan
геи
зеф
кбр
лв
моль
мош
пk
тенд
таиная
фпо
##sl
##lus
##птор
##вард
##нн
##челло
##яные
##анна
##атныи
##один
##икум
##ося
##екло
сторож
стяжки
##усом
##еиф
0031
##row
напальч
соэ
перь
##агин
2501
карточек
0115
##unch
шоколадных
наращ
шаре
микодерил
##ingward
безмол
фрегат
##анталь
русалка
монстер
панкеик
кани
стола
##neft
летнее
сельская
exper
##арды
смесеи
смесовая
heineken
губкин
паки
косолап
dupl
886
московск
цитофлавин
крысиная
перчатка
веток
нагреватель
quant
snap
хохлома
обеды
роджер
сарат
косметик
вафельн
cropp
процед
лиса
mtf
благода
калининскии
робин
трансформеры
кастрированных
объедин
мтаби
пластмассовои
спаржи
тюлька
человеч
политрон
серебряные
виолетта
бычков
backup
выгодныи
гаражная
лекарь
regent
либридерм
хбз
чесночном
year
нераздел
тебе
фален
hqd
tropical
purina
south
отжимом
обсыпнои
endurance
серышевскии
невидимка
mellingward
мегаполис
mousse
##юнян
мстители
норвежскии
вернель
тетраборат
арутюнян
viaggiator
тигровыми
смирнов
salfeti
neoprene
домоседка
мамруковское
biz
dab
dur
irobot
nico
pia
rod
tatt
uri
куль
лама
мио
реику
##ote
##вита
##mw
##чет
##wave
##инан
##онскии
грем
гролш
##ится
##еско
кореики
курскии
##иика
клетки
подка
1610
оберт
воднои
0150
0112
горилла
##блюд
##ишенол
##ульфат
##mie
соскои
монтер
панадол
367
3140
фарф
растр
474
протяж
##лерод
ромео
диана
подсласт
1902
marm
orma
geor
сортов
папаверина
atom
971
липтон
##tier
сибирски
3101
871
877
slimline
затея
cezar
quely
квадра
пропит
земляники
малиновои
bass
пижам
репелл
счит
5301
риниколд
горшке
minis
мфф
table
richmond
барсел
гофрои
бирюзовая
медвежата
фетои
монастырски
вальд
burle
телескопическая
каучуковая
щитовид
закрытыи
vgn
idem
кюве
идея
микрозел
lloyd
iku
жуковскии
губернское
martini
prodesk
огнет
инсулиновыи
интерактивныи
сормовская
артрозан
капуччино
electronicsdeluxe
столбик
веснушка
белмедпрепараты
тилапия
бесшов
автобус
dafen
имерет
kириешки
products
гуттап
дразнилка
ожерелье
мегрельски
биафишенол
печатающая
dens
ela
plex
qr
use
zf
змп
оми
поком
сог
фид
##тини
##cp
##kе
##zor
##олоко
гре
##итари
стк
##усет
5020
##ожитель
##идная
##ильнои
##rops
6038
веса
соци
порол
хлебушко
stan
лимит
соляр
авари
##ательные
котта
индон
##оксина
##линскии
магазин
pho
апельсиновым
желтоп
молочных
проклят
##oget
зернышко
ens
дринк
пленки
ledeme
плоского
узвар
адель
brade
##кула
686
кухонное
пати
рукола
портфель
кислородныи
929
762
perkins
brook
кураги
первых
регенер
1028
boot
1041
эрманн
бифиформ
греипфрукт
баусет
графика
трюфелем
poe
bwh
rost
ламинированная
шиповником
железныи
тирольскии
fruits
aquat
astra
поролоновыи
чтения
image
калининградская
термопаста
тобико
впитывающии
ограничитель
ингаляции
minerva
вакцинация
##резерв
шпажке
кулахсзян
журнальныи
мембрана
лангуст
зодиак
жадэ
водоотталки
модулеи
палтуса
sturm
dorothy
даренка
переяс
quantum
tattoo
quelyd
idemitsu
839
fono
gry
jn
jas
pse
sbe
tiny
бурт
влю
зон
##rana
##цкая
##мис
##cia
##gb
##kом
##еточка
штр
##урал
1017
##абель
##апов
2530
##orer
##истки
##icle
капл
мялка
маслен
масала
инсп
инскои
##203
минест
набором
свинная
ipod
солпад
самогон
каневская
настур
витраж
крепп
лосино
549
чистота
anker
фитосп
актитаб
торчин
889
коричневые
питьевые
модели
корпусе
каим
кардикет
микроволновои
##issa
геле
организации
жировои
ратимиров
palm
оксфорд
африн
главсуп
маяч
##элемент
номера
tuarex
tasty
indust
pinot
хортица
##vius
limon
штукатур
цереб
алтаив
композитныи
сустава
энтерос
антибактериальныи
перманент
picture
бастардо
павлово
boost
бодрость
подъязычн
фужеров
шоуб
eqy
интегр
фруттелла
литература
напылением
##watch
языки
солдат
петелинка
академия
рассеиватель
шедев
##grip
микстура
kensi
кумкват
женьшень
бумеранг
фотисаль
косолапыи
солпадеин
kура
pris
tint
uj
viz
вск
горт
мокач
нл
нюд
пунк
ринг
##бе
##гинка
##kое
##етс
##раг
намат
##501
##усп
плеш
##обер
##офальк
##omon
3025
##уктал
1121
ассоль
##roflex
пивчики
воду
спот
##борныи
трил
1799
##афе
чехов
детски
джустик
##302
stax
cycl
люд
##ампунь
разнот
авен
самовар
семеиное
парма
темные
индеи
фруктоза
сладевиль
антиж
6167
6194
огурца
защитнои
рыбн
желтое
мягких
чистые
995
sex
blonde
plas
dulux
1156
сочнои
прованскими
666
сорти
милански
mevius
игральные
рамке
предуктал
московски
serinity
ухо
corsar
абон
milano
шипами
мерн
бумажн
onion
пропан
hbs
tomme
juul
полипр
flav
cbk
mineral
vsop
престанс
польски
отбеливающии
muze
высокои
микрофиброи
образцов
tgr
вечерняя
такеда
кавказские
позы
соната
фланель
среднепл
astro
technology
ядреныи
щиток
заказнои
чугунная
беиби
мультипекарь
ячменныи
оттенков
паяльник
сентября
культура
булавка
гродно
флотская
габардин
rabbit
новорожденных
клипсои
зенит
георгина
гитара
очарование
джангли
электрогирлянда
барселона
энтеросгель
hoops
kiz
soph
wenger
бэт
лион
пышки
ферт
феста
хос
чача
шб
##рд
##rg
##вода
##цовыи
##ьих
##яга
##инкт
##одж
##оток
##ниkа
2510
корал
##ald
арка
породы
2113
##store
759
2211
578
##прот
темат
remix
замши
deer
антиск
таро
##нички
овеч
тонированныи
нарезн
telesis
мелен
ягоднои
большого
бескон
bravo
докт
ножеточка
amo
хала
минеральное
clin
витаминная
полоску
фермент
697
держателя
quest
wii
##fire
788
земляникои
oliva
конструкто
охотно
кирж
крылышками
ekoplast
уличная
etika
оттиска
eyesh
рыжая
headman
denon
времени
плечевая
абсент
dpi
диетическая
бычье
госп
гастро
тигровыи
выгода
помадно
пражские
xddr
kalde
яблочко
пломба
мицелляр
ostin
аивазян
тефл
столешниц
calligra
дегтя
енота
улучш
knees
кларитромицин
gymna
открывающимися
баллантаинс
tailor
самарамедпром
schesir
вензель
sonnen
тонзилгон
аршани
mysound
шедевры
bes
taste
бион
бенто
гибк
дном
зор
пуаре
ркс
рута
шимо
##бу
##софт
##ьен
##чен
##чини
##грыватель
настр
прока
##илс
стакс
##имекс
##едипин
5060
##улес
1640
обш
арочныи
британ
##осси
трест
россып
яблочное
##igital
скрап
самарка
##антол
##ador
картриджеи
канальная
сахарн
гельминт
энам
персен
петарды
ароматическая
exz
beat
пеппа
трубои
silky
валокор
таур
ромштекс
термы
фаршированная
славия
ssf
рассвет
шлеика
рамки
песочник
липким
восточное
мышел
крекеры
брусники
avene
parf
воздушн
magel
постановка
848
сидения
oldi
olimp
немолоко
camo
molec
ячеика
2055
разъемныи
##overy
makroflex
бруса
etude
gfgr
бергамота
зоог
шотл
черепашки
##ывающии
##ывающая
farres
нпк
dxv
червячки
хозяиственныи
кордафлекс
антиоксид
rival
vents
дополнительныи
гипсокартона
vilenta
аквалаин
сверхпр
шатун
реализации
емв
фокаччо
сканирование
факсе
секси
losk
iec
##tesers
бельгииское
кюветка
нифедипин
вывоз
posay
шитья
цоколя
кармашек
биметалл
сиббиттер
суперчист
проигрыватель
дамплинги
шоубокс
ekoplastik
eyeshadow
валокордин
rim
vay
лаи
ная
нэф
тхк
фат
фаи
хель
хеиник
##ces
##фарин
##овз
##елая
##омакс
штоф
##окрин
прон
##асы
плу
##офаг
изоф
##alli
обв
полечки
трив
1977
анют
3550
цветными
3210
шара
барлеи
руби
кватро
##ovy
оган
силикат
1403
унд
варфарин
фарсис
1701
натуральных
петра
5940
персиково
4300
union
омичка
цыпа
мире
blitz
незам
marse
662
милитари
патри
чешская
озв
макаронс
delux
swell
акваб
грузов
фольги
пряников
распеч
интел
пробкои
полностью
европром
нефильтров
calgon
ягнен
sbh
скотче
salam
кастор
epi
лисичка
lcds
зеркалом
##fast
маят
wdc
пеликан
feel
цилиндрическии
уплотнительная
kiwi
топливного
рафинир
высшая
kлюч
поворотная
кореновка
борисов
лечебные
robiton
##талакс
завитушка
покрышка
растительное
группы
graphix
images
диабет
чернографит
кесьян
припущенная
гутталакс
reebo
челночек
rolsen
прижимнои
stiln
kруассан
съедоб
умножения
вибратор
трапезныи
пранафарм
vestfrost
маслинами
заслонки
пакистан
фаленопсис
минестроне
дегтяр
gfgril
aoy
jx
lik
pit
zolla
дх
фамот
шмп
щеб
##af
##ug
##эит
##инет
##олеи
грант
##ляд
##усло
5021
черка
2550
2511
6026
близ
отдель
показ
салатница
красот
горлов
наборы
джонс
вкз
##ексам
котма
ready
батонч
энз
витап
биог
бииск
##acter
##ираж
удэ
##omix
голубое
##новения
персиковое
ann
##опрот
noct
дюфал
еврок
##endy
luck
живица
планкои
круглых
аспера
струна
##caa
простамол
офтан
пальма
brk
743
новогодних
клубничка
рождением
аципол
малышки
текстильныи
weis
week
oliv
дога
##очиститель
##nail
flam
eeue
sdsq
вакуумнои
сильногазир
skinlite
инстинкт
шеба
транексам
юнис
времена
вставки
##ssey
##ополимер
maltesers
кеторолак
лопаткои
узором
сменных
largus
братцы
тандем
фаилы
мукс
сокровища
hasbro
##осмесь
скандинавскии
гродфуд
safeguard
минивалик
фитолакс
циркуля
доводчиком
forever
бермуды
секундныи
вирджиния
kоньяк
аллегро
вижер
цимлян
amazingthing
буздяк
converse
межениновская
асеньевская
сторожок
фитоспорин
calligrata
фамотидин
дюфалак
gac
sas
tens
биш
ерев
кетч
мант
ноз
фаль
шруса
##еим
##мои
##dle
##kids
##рация
##озер
белг
##улокс
##игур
0060
##остен
клу
##ici
6095
водн
сера
серная
масаго
##202
##ленных
джерки
апа
аланталь
барныи
486
заповед
##ертен
мате
3800
##ffle
одноцвет
alv
биолог
укладка
тональная
2202
7798
coat
крышек
вощ
slender
драгон
лазур
лососевых
esl
докто
потолка
1052
ампулы
милли
сумке
canpol
стерильные
кислоты
кукурузное
2602
еженед
армия
ирландия
##phant
песочно
кулон
match
747
coral
evil
diy
diff
quot
малыша
целое
неваля
молодых
верхом
чау
комплексом
##zzy
##dost
nordost
головнои
raffa
аксион
эпокс
bioderma
шуба
дверями
бордовая
lips
непос
белоруссия
плотн
зверобои
pmg
wkret
рпк
stripe
fishe
чечевичныи
nordman
трехгранные
иммунитет
cosmop
водосточная
рикотта
губернатор
отечествен
иранская
лютик
maximum
декорация
динозаврики
омолаживающая
##офитол
биохимик
шоппер
дмитрогорск
свежемороженая
##оглобул
конопля
vibe
##оларинголога
колхозница
черноплодная
геленджик
giovann
полутвердыи
маячковыи
хеиникен
fon
hwa
name
sip
tq
tch
zg
баф
впер
гильз
дов
дас
дэн
кени
нори
таф
шифон
эвит
##tt
##кум
##ииское
##лата
штап
шторы
##лятор
ств
##ире
белевская
##авитель
##lez
молн
полю
водян
сырно
2460
трет
массы
0110
##лению
выяв
алладин
глик
reme
питан
gbd
прочные
passion
пвг
пепельница
467
холодъ
##опрочныи
играе
1904
marha
блинная
##крас
говяжьим
паштетом
496
чешские
сауна
738
быть
коакси
базис
quattro
793
моти
освежит
иванов
марты
конструк
akami
##кимова
валиков
датированныи
инглиш
гаечныи
роликовыи
рычаж
ступен
##оевая
piano
открыток
плотная
позол
тавров
новосибирская
заснеж
купеческие
застолье
спасскии
схпк
princ
кореновск
trod
есентуки
питательная
##идонии
вороток
интернета
выхода
даикири
техническое
хлебобулочное
кортексин
##omatic
невидимки
кудряв
читаем
селекшн
нипертен
гумат
фотокамеры
карболитовыи
винтерфреш
милликано
поезд
происхождения
вавилон
magnatec
жаровня
банеоцин
чурчхела
настурция
киржач
скрапбук
нэфис
aim
kрон
pand
xm
декар
понг
пильз
рору
##lig
##сартан
##еского
##уся
##азе
##inary
##ицаи
##alut
##teco
##изированныи
##elin
##ическом
##яно
##ышеи
##ction
##109
арти
##ятильник
говядин
sps
бариста
семко
русска
кофеина
рым
натс
##мжк
chan
##ivarius
gbl
##ellenz
5140
1304
калам
5419
5399
военная
unica
тмином
холодушка
гречеи
фитов
##олете
тестер
braus
964
алкогольныи
терем
восх
ватн
шариком
983
delicare
сборник
травка
dawn
двоиными
отбоиник
французское
laime
левоф
противоударная
крючком
пробуж
agness
веселое
реек
##репеж
крылышек
rcs
мозга
bian
праздника
лучком
pozi
эпл
шестигранные
0201
псг
славяночка
сотовыи
сотруд
rhb
пуход
присп
kуриное
stradivarius
устюг
vitak
влагостоикая
рваныи
пионы
раздан
##ращение
дополнитель
nfc
антигель
свадьба
растительно
бесцветная
продукции
интерьерныи
##глют
cookies
богатырскии
shiny
вискозная
punch
папоротника
чурек
levrana
геизерная
прикуриватель
godigital
рюмка
ferrari
женщины
понедельник
характерист
плеера
гадкии
рассказы
неитрализатор
dstru
надбавка
бехеровка
боярушка
синекод
elago
kizoku
exzellenz
cop
cour
kрев
mps
tic
vq
vz
xu
гоб
ион
цу
цанг
цоколь
##жина
##нап
##fine
##dm
##can
##wd
##get
##орама
##арон
##екл
##езам
5070
белос
извест
4017
6028
##естин
##унж
9016
экоф
##rio
##упр
2231
сливная
головои
##акат
скоп
pcm
электрод
рубец
2320
chat
тортовая
smp
6155
шпарг
##оксипин
##arth
верблю
спритц
сельские
камамб
грудок
##215
anth
карамельно
soap
1151
лавсан
десертов
предниз
крыса
сборка
avers
бонс
акваника
оранжевые
радиат
звездная
benz
lumi
hottek
gift
праздничное
гребешком
elephant
srr
torea
стекляннои
lipstick
клеопат
fortnite
viola
indig
баиер
открытои
инструмента
wilmax
датчиком
##колесныи
талис
runway
кисломолоч
седальгин
контурные
тикк
перепелиных
сложности
четверг
мильстрим
милава
citrus
хрусteam
облака
книжки
септолете
гимнастическии
прекрасная
august
лошадиная
комарофф
комиссия
гречишная
радиоуправля
субпродукты
pensan
алебастр
союзмульт
maccoffee
гуттаперч
мышеловка
скрапбукинга
левофлоксацин
garm
jog
kош
myl
oxy
qb
vine
бора
баян
гбит
дицин
келл
оли
фул
чековая
##лут
##fruit
##ыст
##data
##гол
##wu
##енция
##арн
##икен
##емали
##еков
колы
1122
куриль
6036
1810
слоев
обож
перцы
серг
трент
##мира
гормон
##ваис
выращ
##ефан
мали
фруkт
prol
##ingar
амик
pcp
клубни
вафлях
957
кабельная
refer
огонь
##искис
##ando
чернил
антитаб
##ikos
phc
носовои
alingar
опор
обложки
утяж
1602
протектор
драг
##урила
elys
коробочке
птф
6700
7001
sole
hdr
энергофлекс
подарки
яркое
эмоксипин
##одиа
неск
sonicare
768
севиче
schoget
982
цитологическое
арбузы
консервами
донские
молодости
молодежные
верхушка
конститу
хрустящее
вязание
трикотажныи
##оизол
flame
andy
островнои
роуз
model
стародв
материа
осмот
rocher
term
сальников
efher
usams
organica
earphone
почем
lacalut
татарские
пояснои
ксило
лактоф
запаска
button
переключ
imac
шарлотта
kружка
dekken
натяжителя
интернеш
аkция
хребты
tigernu
микроскопическое
ардели
stels
empor
антивозрастнои
рондо
уссурииск
измельчитель
sixth
невролога
шанхаиски
нептун
флебодиа
kалендарь
влюб
пуходерка
тиккурила
дицинон
cip
gede
kamb
pes
sar
xn
дру
лупа
чика
чиф
шм
шоки
##роб
##tic
##тол
##ееся
##dent
##kon
##инч
##иня
##осян
страст
1090
##огексал
череда
карл
износ
##уко
коллаж
##rook
арц
упруг
отип
##stu
брок
бреф
оро
оренбург
##unami
маркиз
тележка
куриными
синх
алла
кабелем
фрискис
конфир
электролоб
запад
машинок
стеклооч
любаня
новорос
начинк
добрын
магистр
5230
натуральн
8002
болотныи
летс
лимонадово
5922
старо
##нитус
валио
sexy
омнитус
фитос
##arden
подарком
сиа
франк
жара
восковои
откорм
липкого
сорбиф
двоиным
отбивные
керамзит
primo
фламенко
##ountain
tsunami
деревянных
богдан
moj
lumien
cros
моющаяся
лорадо
бокорез
дорада
igora
итальяно
liner
можга
новосибхолод
rpr
искусственные
пинта
##ancer
балансир
буханка
юнил
бахрома
ставгород
сухофруктами
финишныи
everh
цинандали
глицерине
учебниk
advent
автомобил
амарас
субстр
gusd
полуостров
нутелла
пароварка
рекорд
полукруглыи
компонент
viewscreen
detangler
мегапак
amazfit
##prom
таблетница
барнаульскии
трихопол
белокачанная
werkel
калашников
отражатель
щелкунчик
джеггинсы
однофазныи
жалсабон
веретено
переяславль
разнотрав
изофра
raffaello
elysium
kambrook
venta
yw
yok
гмк
жи
иэс
ранч
тасс
улет
##тисон
##дэ
##col
##gt
##gas
##елки
##стар
накал
преб
##оспан
##ивы
##идр
конеч
##ольск
6034
6037
6098
арифон
перч
пертуссин
спаика
муля
акне
малодет
синичка
арте
1203
безглют
spv
blaze
483
2620
томатным
6164
##оксолин
лапка
опыт
мелоди
bei
морковная
альта
зви
азот
берлип
anim
лазар
остро
бакунин
эксм
smarterra
хомяков
conf
494
ватут
абрикоса
кроват
0104
luxo
консервирования
0055
кинез
wear
трак
трах
akpo
налета
хотстеры
хренодер
боковая
##элл
баклажаном
электронных
пекинскии
сувенирныи
nesp
сенсорные
ткемали
фармстанд
бензоп
низкая
мускатное
навесная
олимпиика
полосатые
explorer
влагозащ
ваисберг
birth
учебник
thinkcentre
саилентбло
dogs
щелково
liqui
заморозки
двухслоиная
мемантин
##ильтрум
мукуз
полуфабрикаты
bergson
асортименте
шрот
jewelry
конференц
индивидуальнои
пасхальныи
гипоаллергенныи
евровинт
простокваша
исланд
crocband
вышивкои
пятачок
беззерновои
нитроксолин
лубрикант
пьяная
неопудр
любовью
чивас
синтепон
scotch
перспектива
прополиса
denso
самарканд
союзмультфильм
амиксин
schogetten
gedeon
отипакс
сорбифер
берлиприл
hak
jon
pent
rif
vista
wur
бука
деис
зщ
руст
река
тко
терж
хелл
яи
##uda
##hill
грипп
гражд
##отвод
##аксин
5045
##alink
курок
поддержка
блк
орешках
закар
7050
марья
##chair
шоколадка
2710
шарика
##espa
blago
##oso
котла
паркет
##401
953
958
имуд
замед
whis
##рибор
plc
таранка
фасованное
пицц
растяжка
ruw
##еиково
собери
997
омбр
дракула
674
термостоикая
##izza
ключа
638
делиш
фрутелла
горячих
сгущенки
милыи
687
задании
бутылок
сольвент
clb
erj
томленая
доляна
ваицен
аэрогриль
satel
ласточ
заточка
пудре
weight
учен
942
жидкого
ecam
hbf
vert
mobiledata
##door
##landia
колесах
благод
дачная
optowe
василе
rbc
общепит
rende
planeta
канализац
willi
перекиси
kартон
mosqu
флору
староминскои
хвоиная
viper
мультиварки
крюком
snowm
бублики
crizal
бургунд
взбитыми
высвобожд
гипоал
патчкорд
техническая
аспиратор
барашковая
раздвижнои
разносол
beanie
стационарныи
columbia
полотенцесушитель
adesiw
гжель
immuno
boei
фифти
волоконовское
iberica
бижутерия
folkl
george
лактофильтрум
бокорезы
мукузани
optoweek
bcaa
cse
fiz
lal
num
pub
ted
tox
wа
wj
гмс
дох
керн
лг
нk
оk
паго
рув
тока
ханская
цок
чаб
##side
##корт
##вс
##flip
##nuc
##шая
##will
##фил
##камер
##ерри
##онекс
##итаке
##емскии
##езит
##адон
##аджан
свое
##иген
корнер
коронал
перест
сплав
откл
3002
##rat
4002
##eth
мален
лимонно
##iman
1208
##иском
конфе
имк
панч
паля
##охром
dess
столу
##ikin
чиполет
6196
6148
asia
видеостен
8004
##бите
##еися
5930
beb
blueberry
кальм
elit
товарныи
671
коньяком
639
блюз
спортом
1905
насечкои
блинов
блинница
редьки
предостав
шквор
шариковых
картоне
##uba
863
1061
продв
сильн
миkс
базар
##ромасс
795
##illy
ктк
787
деньги
чащин
монтажа
bordo
jblflip
очистка
жилого
жиллет
calis
mcr
салатников
dsc
jump
бамбу
кондитерских
фрикассе
кружки
нормальнои
стопка
ctn
стрижамент
розливное
ливны
сувенирная
отделением
garant
flexmetal
рулонов
акация
benetton
nvy
чувствит
melissa
вспененныи
##proof
treat
крокус
advan
великос
mentol
лебедянскии
стоматолог
кислотами
lanat
клещи
uhb
риет
адыгеискии
счастливыи
клеммник
стрелки
windows
фаинест
мелочь
никелир
полукруглои
zdk
многоразовые
toner
охлаждающая
futura
бэллс
тенниска
дистан
брюссель
qnap
сетчатыи
карменер
bibs
водонепроницаемыи
силикаг
owner
дигоксин
черносмородиновыи
moments
стеклобанка
mohit
vileda
tukzar
урожаиныи
проклятие
плешаков
wiiix
озвуч
noctua
ватутинки
nespresso
birthday
тержинан
ibu
jk
tut
vide
wq
zi
бидон
где
динские
лих
точки
фидер
шем
##рм
##ау
##rd
##лина
##wl
##wson
крюш
##ожар
##omania
##leys
клеве
##асть
6099
1814
слюня
брек
серги
1710
экска
анаст
малт
##упо
2250
артель
3310
авк
spk
##403
капустные
балабан
##adem
окош
любава
матовые
силу
##оксидонии
ответная
болта
реме
петл
мягкон
летн
сада
773
любимому
7200
6450
##иксен
крупноцвет
сибр
заклад
уверен
бакинская
hause
модница
эфи
auv
749
полосками
7300
##the
двоиные
олис
нитро
полиоксидонии
костюмная
valley
текстиля
товарным
бочата
onet
крючка
##beats
углич
частях
manly
хаит
salon
хозяики
быстрая
rcc
знам
minio
##ville
адаптером
dnavy
бегония
алтаиские
вторник
применение
гусарская
прикол
ттг
высокого
пуговки
##исуаз
солодовая
слоник
сальтисон
емкости
ахт
двустор
библи
эндокрин
посыпки
чечевицеи
бортиком
профилактика
анниверс
биоматер
вырезом
bohrer
шуя
inkax
эссенция
##окусковои
алексеевка
грифель
двоиник
барашек
суздальцев
увлажнения
клеящая
##рунт
маслянныи
врезки
каталог
вербена
sylvan
иберика
##егрино
одуван
mijia
маркирован
мундштук
шиммер
натрии
снэки
marmiton
phoen
мокачино
gymnastic
неваляшка
электролобз
rendez
слюняв
bci
kс
kаз
kir
lou
lss
qh
rut
vds
алек
али
бш
гарден
ет
новои
рг
фах
хбр
чхз
##тина
##кофф
##еиск
##kan
##003
##окласс
##лаза
##отои
стенд
стенками
##иды
3011
##arat
##истема
корочкои
##лоу
печка
##епро
##трал
капc
1611
##икао
перечнои
1321
##stone
##егель
марко
джандж
##важ
##edge
sto
голени
вкусами
волан
внучка
светозар
филевская
индюш
chardon
любит
##ерси
чипикао
6140
биокон
thre
верд
##овощ
5411
кама
камыш
932
glen
звон
маунт
##чатое
##штефан
однот
одноклав
делика
лавр
фрутто
##cao
681
491
trento
liu
##эшн
зарядкои
дозированныи
приглаш
воздушных
травм
##ются
гороховое
mixit
гранаты
флаинг
casc
секционная
пакетах
каза
сарада
вязальная
промыш
закусок
киевская
безалкогол
15000
jumex
deseo
кондитеры
альпин
четвер
электронные
##оkо
defensa
linom
кристаллы
размор
кофемашин
заправки
возб
kуриныи
низкии
поилка
контактных
королевски
фацер
мадле
пьез
дурулес
шиитаке
kmt
lotus
аннабель
hortex
version
площад
нордик
cesar
##оперек
волнистых
репсовая
пашабахча
aberc
пистолета
tavit
надписью
fischer
влаговпит
bekker
vodka
duplo
фертика
патриот
преднизолон
garmin
джанджг
cо
ews
kа
kang
national
гент
кера
лодка
умер
хун
шов
эидж
эмо
##tra
##бк
##цеп
##nay
##dis
##cm
##cay
##uce
##bal
##gli
##ерян
##оленд
##олио
##онда
грозд
##емя
##ивателя
##екционныи
##отран
1225
крос
##адская
##оплод
##ичок
##офлу
##aron
4020
соя
##агнит
5003
##str
##уде
плац
##егас
maj
цветочное
2270
сливы
sty
наруш
##106
свиннои
картофел
пакеты
амк
золотце
489
488
remi
тортини
##ержатель
кошечка
неkт
arbit
мкп
sure
sugar
грани
меламин
ягодки
военныи
enr
bln
##ighter
elpa
терморег
аддам
сушено
агроф
кунсеи
пальм
апплик
сорго
##ещения
резиновое
1027
держат
barc
кнопками
##ирующ
молодым
бараньи
шлифованное
1082
штучныи
mts
##bute
знака
праздничные
степнои
вась
васильки
ломтишка
севере
рябушка
пуговиц
кировская
хорс
побег
rmb
лебяж
вирту
анализов
сияющии
пушистая
стерилизованные
глицерином
космопор
kомпакт
шалфея
гербера
mirror
lemonade
хлебопек
шевцов
полуавт
нямка
водосточныи
подмосковные
далмат
преобраз
шлицевая
##эллоу
полутушка
меренга
мультизлаковая
турбос
сател
вырубка
вильямс
фемостон
шкив
itap
ариэль
сигнальныи
болезнеи
##рядныи
слесарныи
буррата
franke
гезлевские
карданного
антизас
произведено
vacuum
тобрекс
протяжкои
вперед
талисман
антитабак
закарпат
имудон
чиполетти
phoenix
джанджгава
arbiton
elpaza
аддамс
cia
ej
eika
fie
ginger
lily
mountain
ody
pga
tap
vet
бун
викс
онд
панд
сетки
фатин
##san
##рона
##yos
##иар
##дм
##лора
##ллер
##nt
##ng
##шат
##uo
##щие
##анок
##итва
##иклер
##еван
##усин
##едди
##ожении
избр
1125
1112
суаре
ассарт
6075
оторин
##elo
3004
1505
##учок
combo
детских
выж
##еиного
лимончелло
ноября
железа
сосед
срезка
##uls
6185
teana
589
992
скар
кусковая
кольцами
тореро
живого
ams
among
гвл
дарниц
##оцвет
рыбака
daikin
арбузная
рождество
резьбы
844
испанскии
##zza
кеисе
реаль
ринофлу
футля
гидравл
гладильныи
##ggy
лезгинка
полноразмерное
##mette
скорл
лобелия
irc
бруто
sweat
вешенками
inno
оснастка
открытом
planta
белорусские
единороги
вертикальная
назначения
sprin
шотландия
дэили
prince
хвоиныи
уфимскии
термосалф
армавирская
невидимая
балаклава
романтик
graphic
термопсол
фалаф
джаззи
momento
овесол
atlantis
zhory
переливом
оптимист
проведение
марлевыи
государственныи
accessories
недатированныи
разноцв
nourish
bugatti
слободскои
lauren
витрина
curex
обследование
uriage
монтерреи
силикатныи
satellite
рувинил
[...]
